{
    "version": "1.0",
    "truncation": null,
    "padding": null,
    "added_tokens": [],
    "normalizer": {
        "type": "Sequence",
        "normalizers": [
            {
                "type": "Prepend",
                "prepend": " "
            },
            {
                "type": "NFKC"
            },
            {
                "type": "Replace",
                "pattern": {
                    "Regex": "\n"
                },
                "content": "\n "
            },
            {
                "type": "Replace",
                "pattern": {
                    "Regex": " *\n"
                },
                "content": "\n"
            }
        ]
    },
    "pre_tokenizer": {
        "type": "Sequence",
        "pretokenizers": [
            {
                "type": "Split",
                "pattern": {
                    "Regex": "[^\\r\\n\\p{L}\\p{N}]?[\\p{Lu}\\p{Lt}\\p{Lm}\\p{Lo}\\p{M}]*[\\p{Ll}\\p{Lm}\\p{Lo}\\p{M}]+|[^\\r\\n\\p{L}\\p{N}]?[\\p{Lu}\\p{Lt}\\p{Lm}\\p{Lo}\\p{M}]+[\\p{Ll}\\p{Lm}\\p{Lo}\\p{M}]*| ?\\p{N}| ?[^\\s\\p{L}\\p{N}]+[\\r\\n/]*|\\s*[\\r\\n]+|\\s+(?!\\S)|\\s+"
                },
                "behavior": "Isolated",
                "invert": false
            },
            {
                "type": "ByteLevel",
                "add_prefix_space": false,
                "trim_offsets": true,
                "use_regex": false
            },
            {
                "type": "Split",
                "pattern": {
                    "Regex": ".{1,24}"
                },
                "behavior": "Isolated",
                "invert": false
            }
        ]
    },
    "post_processor": {
        "type": "TemplateProcessing",
        "single": [
            {
                "SpecialToken": {
                    "id": "<s>",
                    "type_id": 0
                }
            },
            {
                "Sequence": {
                    "id": "A",
                    "type_id": 0
                }
            }
        ],
        "pair": [
            {
                "SpecialToken": {
                    "id": "<s>",
                    "type_id": 0
                }
            },
            {
                "Sequence": {
                    "id": "A",
                    "type_id": 0
                }
            },
            {
                "SpecialToken": {
                    "id": "<s>",
                    "type_id": 0
                }
            },
            {
                "Sequence": {
                    "id": "B",
                    "type_id": 0
                }
            }
        ],
        "special_tokens": {
            "<s>": {
                "id": "<s>",
                "ids": [
                    1
                ],
                "tokens": [
                    "<s>"
                ]
            }
        }
    },
    "decoder": {
        "type": "Sequence",
        "decoders": [
            {
                "type": "ByteLevel",
                "add_prefix_space": true,
                "trim_offsets": true,
                "use_regex": true
            },
            {
                "type": "Strip",
                "content": " ",
                "start": 1,
                "stop": 0
            },
            {
                "type": "Replace",
                "pattern": {
                    "String": "\n "
                },
                "content": "\n"
            }
        ]
    },
    "model": {
        "type": "BPE",
        "dropout": null,
        "unk_token": "<unk>",
        "continuing_subword_prefix": null,
        "end_of_word_suffix": null,
        "fuse_unk": false,
        "byte_fallback": false,
        "ignore_merges": true,
        "vocab": {
            "<unk>": 0,
            "<s>": 1,
            "</s>": 2,
            "<pad>": 3,
            "<mask>": 4,
            "<special_0>": 5,
            "<special_1>": 6,
            "<special_2>": 7,
            "<special_3>": 8,
            "<special_4>": 9,
            "<special_5>": 10,
            "<special_6>": 11,
            "<special_7>": 12,
            "<special_8>": 13,
            "<special_9>": 14,
            "<special_10>": 15,
            "!": 16,
            "\"": 17,
            "#": 18,
            "$": 19,
            "%": 20,
            "&": 21,
            "'": 22,
            "(": 23,
            ")": 24,
            "*": 25,
            "+": 26,
            ",": 27,
            "-": 28,
            ".": 29,
            "/": 30,
            "0": 31,
            "1": 32,
            "2": 33,
            "3": 34,
            "4": 35,
            "5": 36,
            "6": 37,
            "7": 38,
            "8": 39,
            "9": 40,
            ":": 41,
            ";": 42,
            "<": 43,
            "=": 44,
            ">": 45,
            "?": 46,
            "@": 47,
            "A": 48,
            "B": 49,
            "C": 50,
            "D": 51,
            "E": 52,
            "F": 53,
            "G": 54,
            "H": 55,
            "I": 56,
            "J": 57,
            "K": 58,
            "L": 59,
            "M": 60,
            "N": 61,
            "O": 62,
            "P": 63,
            "Q": 64,
            "R": 65,
            "S": 66,
            "T": 67,
            "U": 68,
            "V": 69,
            "W": 70,
            "X": 71,
            "Y": 72,
            "Z": 73,
            "[": 74,
            "\\": 75,
            "]": 76,
            "^": 77,
            "_": 78,
            "`": 79,
            "a": 80,
            "b": 81,
            "c": 82,
            "d": 83,
            "e": 84,
            "f": 85,
            "g": 86,
            "h": 87,
            "i": 88,
            "j": 89,
            "k": 90,
            "l": 91,
            "m": 92,
            "n": 93,
            "o": 94,
            "p": 95,
            "q": 96,
            "r": 97,
            "s": 98,
            "t": 99,
            "u": 100,
            "v": 101,
            "w": 102,
            "x": 103,
            "y": 104,
            "z": 105,
            "{": 106,
            "|": 107,
            "}": 108,
            "~": 109,
            "¡": 110,
            "¢": 111,
            "£": 112,
            "¤": 113,
            "¥": 114,
            "¦": 115,
            "§": 116,
            "¨": 117,
            "©": 118,
            "ª": 119,
            "«": 120,
            "¬": 121,
            "®": 122,
            "¯": 123,
            "°": 124,
            "±": 125,
            "²": 126,
            "³": 127,
            "´": 128,
            "µ": 129,
            "¶": 130,
            "·": 131,
            "¸": 132,
            "¹": 133,
            "º": 134,
            "»": 135,
            "¼": 136,
            "½": 137,
            "¾": 138,
            "¿": 139,
            "À": 140,
            "Á": 141,
            "Â": 142,
            "Ã": 143,
            "Ä": 144,
            "Å": 145,
            "Æ": 146,
            "Ç": 147,
            "È": 148,
            "É": 149,
            "Ê": 150,
            "Ë": 151,
            "Ì": 152,
            "Í": 153,
            "Î": 154,
            "Ï": 155,
            "Ð": 156,
            "Ñ": 157,
            "Ò": 158,
            "Ó": 159,
            "Ô": 160,
            "Õ": 161,
            "Ö": 162,
            "×": 163,
            "Ø": 164,
            "Ù": 165,
            "Ú": 166,
            "Û": 167,
            "Ü": 168,
            "Ý": 169,
            "Þ": 170,
            "ß": 171,
            "à": 172,
            "á": 173,
            "â": 174,
            "ã": 175,
            "ä": 176,
            "å": 177,
            "æ": 178,
            "ç": 179,
            "è": 180,
            "é": 181,
            "ê": 182,
            "ë": 183,
            "ì": 184,
            "í": 185,
            "î": 186,
            "ï": 187,
            "ð": 188,
            "ñ": 189,
            "ò": 190,
            "ó": 191,
            "ô": 192,
            "õ": 193,
            "ö": 194,
            "÷": 195,
            "ø": 196,
            "ù": 197,
            "ú": 198,
            "û": 199,
            "ü": 200,
            "ý": 201,
            "þ": 202,
            "ÿ": 203,
            "Ā": 204,
            "ā": 205,
            "Ă": 206,
            "ă": 207,
            "Ą": 208,
            "ą": 209,
            "Ć": 210,
            "ć": 211,
            "Ĉ": 212,
            "ĉ": 213,
            "Ċ": 214,
            "ċ": 215,
            "Č": 216,
            "č": 217,
            "Ď": 218,
            "ď": 219,
            "Đ": 220,
            "đ": 221,
            "Ē": 222,
            "ē": 223,
            "Ĕ": 224,
            "ĕ": 225,
            "Ė": 226,
            "ė": 227,
            "Ę": 228,
            "ę": 229,
            "Ě": 230,
            "ě": 231,
            "Ĝ": 232,
            "ĝ": 233,
            "Ğ": 234,
            "ğ": 235,
            "Ġ": 236,
            "ġ": 237,
            "Ģ": 238,
            "ģ": 239,
            "Ĥ": 240,
            "ĥ": 241,
            "Ħ": 242,
            "ħ": 243,
            "Ĩ": 244,
            "ĩ": 245,
            "Ī": 246,
            "ī": 247,
            "Ĭ": 248,
            "ĭ": 249,
            "Į": 250,
            "į": 251,
            "İ": 252,
            "ı": 253,
            "Ĳ": 254,
            "ĳ": 255,
            "Ĵ": 256,
            "ĵ": 257,
            "Ķ": 258,
            "ķ": 259,
            "ĸ": 260,
            "Ĺ": 261,
            "ĺ": 262,
            "Ļ": 263,
            "ļ": 264,
            "Ľ": 265,
            "ľ": 266,
            "Ŀ": 267,
            "ŀ": 268,
            "Ł": 269,
            "ł": 270,
            "Ń": 271,
            "Ġt": 272,
            "he": 273,
            "Ġa": 274,
            "Ġi": 275,
            "Ġw": 276,
            "Ġs": 277,
            "Ġthe": 278,
            "ou": 279,
            "re": 280,
            "in": 281,
            "Ġo": 282,
            "Ġm": 283,
            "ha": 284,
            "er": 285,
            "Ġb": 286,
            "Ġc": 287,
            "Ġy": 288,
            "nd": 289,
            "Ġd": 290,
            "on": 291,
            "Ġf": 292,
            "Ġyou": 293,
            "Ġp": 294,
            "ing": 295,
            "ll": 296,
            "or": 297,
            "an": 298,
            "Ġto": 299,
            "en": 300,
            "ed": 301,
            "Ġg": 302,
            "Ġl": 303,
            "es": 304,
            "Ġn": 305,
            "is": 306,
            "Ġin": 307,
            "Ġof": 308,
            "it": 309,
            "ar": 310,
            "Ġand": 311,
            "hat": 312,
            "as": 313,
            "Ġhe": 314,
            "at": 315,
            "om": 316,
            "Ġit": 317,
            "Ġh": 318,
            "ve": 319,
            "ow": 320,
            "ot": 321,
            "Ġha": 322,
            "ic": 323,
            "et": 324,
            "Ġth": 325,
            "'s": 326,
            "us": 327,
            "le": 328,
            "Ġwe": 329,
            "Ġis": 330,
            "Ġthat": 331,
            "al": 332,
            "Ġbe": 333,
            "Ġe": 334,
            "ay": 335,
            "Ġon": 336,
            "..": 337,
            "Ġr": 338,
            "id": 339,
            "gh": 340,
            "Ġre": 341,
            "Ġk": 342,
            "Ġwas": 343,
            "ion": 344,
            "ld": 345,
            "Ġst": 346,
            "ut": 347,
            "Ġfor": 348,
            "ac": 349,
            "ent": 350,
            "'t": 351,
            "ver": 352,
            "im": 353,
            "Ġme": 354,
            "Ġj": 355,
            "am": 356,
            "Ġu": 357,
            "ly": 358,
            "Ġgo": 359,
            "ght": 360,
            "st": 361,
            "ad": 362,
            "ir": 363,
            "Ġan": 364,
            "se": 365,
            "out": 366,
            "ke": 367,
            "Ġdo": 368,
            "Ġwh": 369,
            "Ġwhat": 370,
            "ith": 371,
            "Ġse": 372,
            "ro": 373,
            "Ġthis": 374,
            "Ġwith": 375,
            "all": 376,
            "Ġas": 377,
            "Ġli": 378,
            "Ġnot": 379,
            "ur": 380,
            "Ġare": 381,
            "ill": 382,
            "ight": 383,
            "ome": 384,
            "her": 385,
            "ce": 386,
            "ct": 387,
            "Ġhave": 388,
            "Ġ\"": 389,
            "ch": 390,
            "oo": 391,
            "ter": 392,
            "Ġso": 393,
            "Ġfr": 394,
            "Ġat": 395,
            "...": 396,
            "Ġno": 397,
            "ust": 398,
            "Ġkn": 399,
            "Ġ1": 400,
            "Ġthey": 401,
            "ould": 402,
            "Ġne": 403,
            "il": 404,
            "Ġbut": 405,
            "ant": 406,
            "Ġmy": 407,
            "Ġde": 408,
            "Ġcan": 409,
            "Ġknow": 410,
            "ea": 411,
            "op": 412,
            "Ġdon": 413,
            "Ġyour": 414,
            "Ġall": 415,
            "ie": 416,
            "Ġthere": 417,
            "Ġshe": 418,
            "Ġmo": 419,
            "and": 420,
            "un": 421,
            "ain": 422,
            "Ġal": 423,
            "Ġwhe": 424,
            "Ġhis": 425,
            "our": 426,
            "ge": 427,
            "Ġsh": 428,
            "Ġab": 429,
            "ation": 430,
            "th": 431,
            "Ġsu": 432,
            "ri": 433,
            "ol": 434,
            "od": 435,
            "ul": 436,
            "pp": 437,
            "'re": 438,
            "'m": 439,
            "Ġ2": 440,
            "Ġone": 441,
            "Ġfrom": 442,
            "est": 443,
            "Ġ(": 444,
            "Ġor": 445,
            "Ġv": 446,
            "art": 447,
            "ist": 448,
            "Ġget": 449,
            "Ġwor": 450,
            "Ġby": 451,
            "Ġcom": 452,
            "Ġher": 453,
            "han": 454,
            "Ġjust": 455,
            "ers": 456,
            "Ġup": 457,
            "ry": 458,
            "Ġlike": 459,
            "ess": 460,
            "os": 461,
            "Ġout": 462,
            "Ġus": 463,
            "um": 464,
            "Ġcon": 465,
            "Ġif": 466,
            "Ġpl": 467,
            "Ġhim": 468,
            "qu": 469,
            "red": 470,
            "ack": 471,
            "ake": 472,
            "very": 473,
            "ally": 474,
            "ab": 475,
            "Ġabout": 476,
            "Ġte": 477,
            "Ġdid": 478,
            "nt": 479,
            "fe": 480,
            "one": 481,
            "ink": 482,
            "ck": 483,
            "ig": 484,
            "Ġhad": 485,
            "ate": 486,
            "Ġex": 487,
            "res": 488,
            "ook": 489,
            "Ġsa": 490,
            "Ġwho": 491,
            "ive": 492,
            "ra": 493,
            "Ġhere": 494,
            "Ġsp": 495,
            "ame": 496,
            "Ġpro": 497,
            "Ġwell": 498,
            "âĢ": 499,
            "Ġman": 500,
            "Ġright": 501,
            "'ll": 502,
            "el": 503,
            "Ġwere": 504,
            "eah": 505,
            "ong": 506,
            "ound": 507,
            "Ġyeah": 508,
            "Ġgot": 509,
            "ind": 510,
            "ast": 511,
            "Ġnow": 512,
            "em": 513,
            "ard": 514,
            "Ġany": 515,
            "Ġch": 516,
            "ort": 517,
            "Ġsome": 518,
            "Ġwill": 519,
            "Ġwant": 520,
            "ber": 521,
            "Ġoh": 522,
            "Ġar": 523,
            "Ġlo": 524,
            "Ġer": 525,
            "Ġthink": 526,
            "if": 527,
            "ity": 528,
            "Ġhow": 529,
            "Ġwhen": 530,
            "Ġtim": 531,
            "Ġle": 532,
            "Ġwould": 533,
            "ak": 534,
            "ap": 535,
            "Ġbr": 536,
            "'ve": 537,
            "ies": 538,
            "Ġun": 539,
            "ven": 540,
            "ine": 541,
            "Ġam": 542,
            "Ġthem": 543,
            "Ġtr": 544,
            "hing": 545,
            "Ġpe": 546,
            "ous": 547,
            "Ġlook": 548,
            "ich": 549,
            "Ġcome": 550,
            "Ġhas": 551,
            "Ġsee": 552,
            "Ġtw": 553,
            "Ġfe": 554,
            "Ġag": 555,
            "Ġsay": 556,
            "Ġbec": 557,
            "ore": 558,
            "Ġcl": 559,
            "Ġthan": 560,
            "ag": 561,
            "ice": 562,
            "use": 563,
            "Ġint": 564,
            "ment": 565,
            "Ġthen": 566,
            "Ġco": 567,
            "Ġbeen": 568,
            "own": 569,
            "Ġgood": 570,
            "ud": 571,
            "Ġaf": 572,
            "Ġtime": 573,
            "ough": 574,
            "Ġyes": 575,
            "ther": 576,
            "Ġro": 577,
            "ep": 578,
            "way": 579,
            "mp": 580,
            "ian": 581,
            "Ġen": 582,
            "ear": 583,
            "itt": 584,
            "are": 585,
            "Ġwhich": 586,
            "na": 587,
            "Ġlet": 588,
            "ia": 589,
            "ople": 590,
            "ide": 591,
            "ace": 592,
            "Ġgr": 593,
            "Ġpr": 594,
            "Ġqu": 595,
            "Ġpeople": 596,
            "Ġcould": 597,
            "ick": 598,
            "Ġback": 599,
            "Ġmar": 600,
            "ip": 601,
            "Ġsaid": 602,
            "Ġwhere": 603,
            "Ġoff": 604,
            "iv": 605,
            "ish": 606,
            "ause": 607,
            "lf": 608,
            "ure": 609,
            "Ġmore": 610,
            "Ġgoing": 611,
            "orn": 612,
            "reat": 613,
            "Ġtwo": 614,
            "Ġother": 615,
            "Ġok": 616,
            "ree": 617,
            "Ġwhy": 618,
            "Ġwork": 619,
            "ect": 620,
            "other": 621,
            "Ġbl": 622,
            "Ġtheir": 623,
            "Ġsc": 624,
            "Ġcha": 625,
            "Ġevery": 626,
            "Ġthing": 627,
            "Ġfir": 628,
            "Ġover": 629,
            "so": 630,
            "nder": 631,
            "Ġvery": 632,
            "Ġmay": 633,
            "ase": 634,
            "ble": 635,
            "omet": 636,
            "ount": 637,
            "Ġgu": 638,
            "Ġtoo": 639,
            "age": 640,
            "Ġmean": 641,
            "ose": 642,
            "ary": 643,
            "ite": 644,
            "Ġfirst": 645,
            "Ġbo": 646,
            "Ġcall": 647,
            "Ġour": 648,
            "act": 649,
            "alk": 650,
            "Ġpart": 651,
            "Ġnew": 652,
            "Ġsomet": 653,
            "ire": 654,
            "Ġjo": 655,
            "ass": 656,
            "Ġtake": 657,
            "Ġyear": 658,
            "Ġonly": 659,
            "Ġdown": 660,
            "Ġafter": 661,
            "Ġbecause": 662,
            "Ġway": 663,
            "--": 664,
            "ord": 665,
            "Ġtell": 666,
            "Ġad": 667,
            "Ġcomp": 668,
            "Ġneed": 669,
            "ade": 670,
            "ought": 671,
            "we": 672,
            "Ġbet": 673,
            "ue": 674,
            "Ġinto": 675,
            "Ġokay": 676,
            "Ġplay": 677,
            "ci": 678,
            "pt": 679,
            "Ġday": 680,
            "Ġact": 681,
            "co": 682,
            "ub": 683,
            "Ġpo": 684,
            "wn": 685,
            "ved": 686,
            "Ġreally": 687,
            "uck": 688,
            "Ġagain": 689,
            "'d": 690,
            "Ġac": 691,
            "Ġmake": 692,
            "ood": 693,
            "Ġcar": 694,
            "Ġper": 695,
            "Ġalso": 696,
            "Ġshould": 697,
            "ĠâĢ": 698,
            "thing": 699,
            "ty": 700,
            ".\"": 701,
            "ance": 702,
            "ions": 703,
            "per": 704,
            "hed": 705,
            "Ġfl": 706,
            "Ġgon": 707,
            "Ġthese": 708,
            "ated": 709,
            "Ġdis": 710,
            "Ġdoes": 711,
            "ild": 712,
            "Ġsomething": 713,
            "Ġwr": 714,
            "ving": 715,
            "Ġmu": 716,
            "ater": 717,
            "Ġhapp": 718,
            "ittle": 719,
            "ach": 720,
            "Ġgonna": 721,
            "Ġdidn": 722,
            "iz": 723,
            "ff": 724,
            "Ġlittle": 725,
            "urn": 726,
            "ren": 727,
            "man": 728,
            "iss": 729,
            "ied": 730,
            "Ġcomm": 731,
            "ress": 732,
            "Ġpre": 733,
            "be": 734,
            "fore": 735,
            "ody": 736,
            "Ġser": 737,
            "Ġthank": 738,
            "Ġunder": 739,
            "Ġnever": 740,
            "Ġeven": 741,
            "Ġbu": 742,
            "Ġfo": 743,
            "self": 744,
            "Ġthr": 745,
            "ang": 746,
            "Ġtalk": 747,
            "Ġcont": 748,
            "Ġcount": 749,
            "Ġmuch": 750,
            "ence": 751,
            "ft": 752,
            "Ġla": 753,
            "Ġmr": 754,
            "Ġke": 755,
            "Ġhel": 756,
            "ather": 757,
            "cl": 758,
            "Ġlong": 759,
            "Ġsm": 760,
            "ile": 761,
            "Ġsha": 762,
            "Ġmade": 763,
            "ict": 764,
            "able": 765,
            "pe": 766,
            "Ġerm": 767,
            "Ġbefore": 768,
            "Ġho": 769,
            "int": 770,
            "ys": 771,
            "Ġput": 772,
            "av": 773,
            "ory": 774,
            "Ġapp": 775,
            "ical": 776,
            "Ġple": 777,
            "Ġlea": 778,
            "Ġcr": 779,
            "ens": 780,
            "pl": 781,
            "ans": 782,
            "ool": 783,
            "Ġmany": 784,
            "Ġmin": 785,
            "Ġgreat": 786,
            "Ġrem": 787,
            "Ġ.": 788,
            "Ġhey": 789,
            "ting": 790,
            "Ġbel": 791,
            "Ġres": 792,
            "orm": 793,
            "Ġdr": 794,
            "Ġgive": 795,
            "Ġlove": 796,
            "the": 797,
            "ign": 798,
            "Ġind": 799,
            "Ġwa": 800,
            "Ġchan": 801,
            "Ġ'": 802,
            "land": 803,
            "Ġhelp": 804,
            "Ġmost": 805,
            "Ġthree": 806,
            "nds": 807,
            "Ġyears": 808,
            "day": 809,
            "ady": 810,
            "ates": 811,
            "ath": 812,
            "og": 813,
            "te": 814,
            "les": 815,
            "ious": 816,
            "Ġimp": 817,
            "Ġstill": 818,
            "Ġits": 819,
            "Ġhar": 820,
            "Ġlife": 821,
            "Ġph": 822,
            "ons": 823,
            "ult": 824,
            "ix": 825,
            "Ġold": 826,
            "Ġma": 827,
            "Ġstart": 828,
            "Ġthought": 829,
            "Ġche": 830,
            "Ġgod": 831,
            "ited": 832,
            "Ġpol": 833,
            "ug": 834,
            "ise": 835,
            "Ġworld": 836,
            "ves": 837,
            "Ġask": 838,
            "Ġused": 839,
            "Ġwon": 840,
            "get": 841,
            "Ġmust": 842,
            "ne": 843,
            "Ġfind": 844,
            "Ġlast": 845,
            "Ġcour": 846,
            "Ġhi": 847,
            "ouse": 848,
            "Ġspe": 849,
            "ually": 850,
            "Ġthose": 851,
            "Ġdoing": 852,
            "Ġfound": 853,
            "ily": 854,
            "Ġthrough": 855,
            "eric": 856,
            "Ġsor": 857,
            "ward": 858,
            "mm": 859,
            "Ġkill": 860,
            "Ġstr": 861,
            "iver": 862,
            "Ġshow": 863,
            "ull": 864,
            "Ġear": 865,
            "Ġ3": 866,
            "Ġhome": 867,
            "Ġplease": 868,
            "ations": 869,
            "Ġpar": 870,
            "Ġdif": 871,
            "Ġwar": 872,
            "ps": 873,
            "Ġsure": 874,
            "Ġthings": 875,
            "Ġpres": 876,
            "body": 877,
            "Ġsorry": 878,
            "Ġaway": 879,
            "Ġname": 880,
            "ors": 881,
            "vel": 882,
            "Ġchar": 883,
            "oney": 884,
            "Ġdes": 885,
            "Ġmon": 886,
            "oss": 887,
            "ful": 888,
            "ĠâĢľ": 889,
            "ince": 890,
            "Ġwom": 891,
            "Ġfeel": 892,
            "Ġrep": 893,
            "Ġmat": 894,
            "Ġameric": 895,
            "âĢĿ": 896,
            "Ġnight": 897,
            "Ġstop": 898,
            "Ġbeing": 899,
            "Ġwait": 900,
            "Ġtry": 901,
            "ail": 902,
            "uc": 903,
            "Ġcalled": 904,
            "Ġel": 905,
            "tain": 906,
            "Ġcare": 907,
            "\".": 908,
            "Ġgir": 909,
            "Ġfam": 910,
            "ried": 911,
            "Ġsl": 912,
            "Ġid": 913,
            "Ġown": 914,
            "Ġhappen": 915,
            "ition": 916,
            "rent": 917,
            "ial": 918,
            "au": 919,
            "Ġanything": 920,
            "Ġsch": 921,
            "mber": 922,
            "Ġcity": 923,
            "Ġfrie": 924,
            "Ġbig": 925,
            "Ġkeep": 926,
            "ways": 927,
            "Ġlot": 928,
            "ng": 929,
            "Ġnothing": 930,
            "Ġform": 931,
            "Ġfin": 932,
            "Ġplace": 933,
            "Ġhouse": 934,
            "Ġsw": 935,
            "Ġhu": 936,
            "ph": 937,
            "ks": 938,
            "der": 939,
            "Ġhell": 940,
            "ings": 941,
            "Ġreg": 942,
            "Ġsame": 943,
            "Ġend": 944,
            "Ġbot": 945,
            "llow": 946,
            "Ġcame": 947,
            "Ġrec": 948,
            "Ġatt": 949,
            "Ġeng": 950,
            "Ġpers": 951,
            "Ġchild": 952,
            "ember": 953,
            "Ġwent": 954,
            "Ġsupp": 955,
            "hes": 956,
            "âĢĻ": 957,
            "up": 958,
            "Ġtak": 959,
            "anc": 960,
            "ational": 961,
            "Ġgen": 962,
            "br": 963,
            "Ġhead": 964,
            "Ġacc": 965,
            "Ġfour": 966,
            "Ġaround": 967,
            "xt": 968,
            "Ġsuch": 969,
            "ction": 970,
            "Ġgirl": 971,
            "Ġalways": 972,
            "Ġbetter": 973,
            "Ġmm": 974,
            "Ġanother": 975,
            "Ġmight": 976,
            "ident": 977,
            "Ġlist": 978,
            "Ġop": 979,
            "Ġsy": 980,
            "amp": 981,
            "Ġsir": 982,
            "Ġmiss": 983,
            "tern": 984,
            "Ġbit": 985,
            "Ġmom": 986,
            "Ġturn": 987,
            "Ġbelie": 988,
            "Ġcent": 989,
            "als": 990,
            "Ġdone": 991,
            "Ġnor": 992,
            "ning": 993,
            "Ġmoney": 994,
            "Ġcap": 995,
            "Ġgl": 996,
            "Ġrel": 997,
            "Ġsur": 998,
            "ute": 999,
            "mo": 1000,
            "Ġleft": 1001,
            "Ġtold": 1002,
            "Ġdiffe": 1003,
            "Ġknown": 1004,
            "Ġele": 1005,
            "air": 1006,
            "Ġev": 1007,
            "Ġrun": 1008,
            "Ġnum": 1009,
            "lic": 1010,
            ").": 1011,
            "Ġkind": 1012,
            "gin": 1013,
            "gan": 1014,
            "side": 1015,
            "Ġter": 1016,
            "ever": 1017,
            "ank": 1018,
            "Ġreal": 1019,
            "Ġbus": 1020,
            "ock": 1021,
            "rest": 1022,
            "Ġmus": 1023,
            "Ġhand": 1024,
            "ell": 1025,
            "Ġmak": 1026,
            "Ġmen": 1027,
            "Ġunt": 1028,
            "io": 1029,
            "Ġfather": 1030,
            "Ġuse": 1031,
            "Ġever": 1032,
            "Ġunited": 1033,
            ",\"": 1034,
            "Ġdist": 1035,
            "Ġbest": 1036,
            "Ġseco": 1037,
            "Ġschool": 1038,
            "ib": 1039,
            "Ġcle": 1040,
            "pect": 1041,
            "cc": 1042,
            "outh": 1043,
            "atch": 1044,
            "Ġob": 1045,
            "Ġmet": 1046,
            "Ġset": 1047,
            "Ġperson": 1048,
            "Ġinv": 1049,
            "vie": 1050,
            "ents": 1051,
            "Ġed": 1052,
            "Ġcol": 1053,
            "Ġmaybe": 1054,
            "Ġstates": 1055,
            "ower": 1056,
            "ible": 1057,
            "ased": 1058,
            "Ġword": 1059,
            "ating": 1060,
            "ts": 1061,
            "gr": 1062,
            "Ġeverything": 1063,
            "Ġuh": 1064,
            "ms": 1065,
            "Ġmother": 1066,
            "Ġcourse": 1067,
            "Ġdoesn": 1068,
            "une": 1069,
            "Ġamerican": 1070,
            "ier": 1071,
            "oup": 1072,
            "ss": 1073,
            "Ġz": 1074,
            "Ġ4": 1075,
            "ween": 1076,
            "Ġuntil": 1077,
            "Ġdied": 1078,
            "Ġfuck": 1079,
            "Ġwee": 1080,
            "uring": 1081,
            "ics": 1082,
            "Ġisn": 1083,
            "Ġbre": 1084,
            "form": 1085,
            "Ġnext": 1086,
            "mb": 1087,
            "Ġbetween": 1088,
            "sh": 1089,
            "Ġwhile": 1090,
            "Ġleave": 1091,
            "Ġent": 1092,
            "Ġfar": 1093,
            "pr": 1094,
            "Ġsing": 1095,
            "ness": 1096,
            "Ġsince": 1097,
            "\",": 1098,
            "ew": 1099,
            "cial": 1100,
            "Ġbar": 1101,
            "Ġstay": 1102,
            "no": 1103,
            "Ġopen": 1104,
            "Ġstate": 1105,
            "fect": 1106,
            "ah": 1107,
            "Ġfive": 1108,
            "Ġbad": 1109,
            "ason": 1110,
            "stand": 1111,
            "my": 1112,
            "ger": 1113,
            "ner": 1114,
            "Ġdec": 1115,
            "Ġpop": 1116,
            "Ġsecond": 1117,
            "ton": 1118,
            "uary": 1119,
            "Ġ5": 1120,
            "Ġsix": 1121,
            "Ġpoint": 1122,
            "Ġey": 1123,
            "ters": 1124,
            "Ġdifferent": 1125,
            "Ġdep": 1126,
            "Ġkid": 1127,
            "az": 1128,
            "Ġcons": 1129,
            "ular": 1130,
            "Ġenough": 1131,
            "Ġinst": 1132,
            "Ġlater": 1133,
            "ual": 1134,
            "let": 1135,
            "oun": 1136,
            "enc": 1137,
            "Ġborn": 1138,
            "Ġboth": 1139,
            "ny": 1140,
            "),": 1141,
            "Ġhigh": 1142,
            "Ġson": 1143,
            "Ġplan": 1144,
            "ave": 1145,
            "Ġstud": 1146,
            "cre": 1147,
            "Ġsim": 1148,
            "Ġcoming": 1149,
            "Ġseem": 1150,
            "Ġret": 1151,
            "aught": 1152,
            "Ġdad": 1153,
            "Ġass": 1154,
            "row": 1155,
            "led": 1156,
            "Ġfamily": 1157,
            "Ġwanted": 1158,
            "hn": 1159,
            "Ġmind": 1160,
            "ten": 1161,
            "me": 1162,
            "Ġchr": 1163,
            "Ġhear": 1164,
            "Ġeach": 1165,
            "ling": 1166,
            "Ġlar": 1167,
            "Ġmeet": 1168,
            "Ġactually": 1169,
            "Ġsk": 1170,
            "Ġpass": 1171,
            "ged": 1172,
            "ird": 1173,
            "Ġteam": 1174,
            "Ġsub": 1175,
            "Ġwater": 1176,
            "Ġmove": 1177,
            "clud": 1178,
            "Ġbelieve": 1179,
            "vern": 1180,
            "Ġnice": 1181,
            "ision": 1182,
            "Ġnumber": 1183,
            "ames": 1184,
            "Ġtoday": 1185,
            "Ġbook": 1186,
            "Ġyoung": 1187,
            "Ġwithout": 1188,
            "Ġdire": 1189,
            "Ġduring": 1190,
            "Ġtown": 1191,
            "Ġunderstand": 1192,
            "ime": 1193,
            "ont": 1194,
            "Ġtook": 1195,
            "Ġboy": 1196,
            "Ġfun": 1197,
            "eak": 1198,
            "ctor": 1199,
            "Ġtra": 1200,
            "Ġhard": 1201,
            "ork": 1202,
            "Ġseen": 1203,
            "ished": 1204,
            "Ã©": 1205,
            "Ġonce": 1206,
            "Ġproble": 1207,
            "Ġking": 1208,
            "Ġbro": 1209,
            "Ġcounty": 1210,
            "by": 1211,
            "Ġcoll": 1212,
            "oy": 1213,
            "Ġfollow": 1214,
            "here": 1215,
            "uth": 1216,
            "Ġair": 1217,
            "ars": 1218,
            "eral": 1219,
            "ife": 1220,
            "Ġhum": 1221,
            "Ġhop": 1222,
            "Ġtoget": 1223,
            "Ġlive": 1224,
            "ins": 1225,
            "Ġlisten": 1226,
            "cept": 1227,
            "Ġtogether": 1228,
            "iness": 1229,
            "Ġelse": 1230,
            "Ġhur": 1231,
            "Ġsit": 1232,
            "Ġstand": 1233,
            "ister": 1234,
            "Ġeas": 1235,
            "Ġgre": 1236,
            "Ġsaw": 1237,
            "Ġhold": 1238,
            "Ġremember": 1239,
            "ject": 1240,
            "ric": 1241,
            "Ġagainst": 1242,
            "Ġlight": 1243,
            "ta": 1244,
            "Ġroom": 1245,
            "Ġnorth": 1246,
            "ash": 1247,
            "Ġgovern": 1248,
            "Ġste": 1249,
            "Ġfew": 1250,
            "osed": 1251,
            "Ġinte": 1252,
            "Ġmed": 1253,
            "olog": 1254,
            "Ġpa": 1255,
            "ably": 1256,
            "Ġinclud": 1257,
            "ark": 1258,
            "Ġgetting": 1259,
            "Ġfine": 1260,
            "ines": 1261,
            "Ġjohn": 1262,
            "Ġwoman": 1263,
            "Ġsmall": 1264,
            "iet": 1265,
            "Ġsays": 1266,
            "Ġhappened": 1267,
            "Ġlooking": 1268,
            "Ġwrong": 1269,
            "Ġjob": 1270,
            "Ġmorn": 1271,
            "Ġtri": 1272,
            "Ġhour": 1273,
            "Ġfact": 1274,
            "Ġbecame": 1275,
            "Ġnational": 1276,
            "Ġdead": 1277,
            "ross": 1278,
            "Ġexc": 1279,
            "Ġger": 1280,
            "Ġsomeone": 1281,
            "ertain": 1282,
            "Ġca": 1283,
            "Ġmil": 1284,
            "de": 1285,
            "Ġquite": 1286,
            "ures": 1287,
            "Ġrest": 1288,
            "Ġart": 1289,
            "Ġdays": 1290,
            "Ġpay": 1291,
            "ivers": 1292,
            "Ġnat": 1293,
            "Ġland": 1294,
            "less": 1295,
            "Ġsouth": 1296,
            "Ġmorning": 1297,
            "ung": 1298,
            "Ġguy": 1299,
            "its": 1300,
            "Ġprod": 1301,
            "Ġpub": 1302,
            "Ġsign": 1303,
            "Ġbab": 1304,
            "Ġyet": 1305,
            "ream": 1306,
            "Ġsort": 1307,
            "uss": 1308,
            "Ġfriend": 1309,
            "gg": 1310,
            "ities": 1311,
            "Ġcur": 1312,
            "ital": 1313,
            "Ġdeath": 1314,
            "ik": 1315,
            "Ġfoot": 1316,
            "Ġtalking": 1317,
            "Ġquest": 1318,
            "Ġbrother": 1319,
            "Ġjan": 1320,
            "Ġlaw": 1321,
            "Ġ6": 1322,
            "Ġmusic": 1323,
            "Ġmovie": 1324,
            "Ġimport": 1325,
            "ired": 1326,
            "ball": 1327,
            "Ġ,": 1328,
            "Ġcal": 1329,
            "ned": 1330,
            "Ġtom": 1331,
            "ina": 1332,
            "Ġlead": 1333,
            "?\"": 1334,
            "uct": 1335,
            "Ġge": 1336,
            "ote": 1337,
            "Ġwalk": 1338,
            "Ġchildren": 1339,
            "Ġhalf": 1340,
            "ĠâĢĵ": 1341,
            "Ġwin": 1342,
            "Ġheart": 1343,
            "vers": 1344,
            "Ġ7": 1345,
            "Ġah": 1346,
            "Ġwo": 1347,
            "Ġchrist": 1348,
            "Ġguys": 1349,
            "Ġread": 1350,
            "Ġwasn": 1351,
            "Ġface": 1352,
            "Ġhello": 1353,
            "-s": 1354,
            "ense": 1355,
            "Ġdri": 1356,
            "ury": 1357,
            "Ġcor": 1358,
            "Ġnear": 1359,
            "ready": 1360,
            "Ġmain": 1361,
            "Ġred": 1362,
            "Ġstarted": 1363,
            "Ġside": 1364,
            "Ġpat": 1365,
            "son": 1366,
            "Ġ8": 1367,
            "Ġra": 1368,
            "Ġadd": 1369,
            "Ġ...": 1370,
            "Ġthough": 1371,
            "Ġthanks": 1372,
            "hip": 1373,
            "ces": 1374,
            "Ġwhole": 1375,
            "Ġplayed": 1376,
            "Ġposs": 1377,
            "tle": 1378,
            "Ġalready": 1379,
            "Ġwouldn": 1380,
            "Ġemp": 1381,
            "ral": 1382,
            "Ġloc": 1383,
            "Ġtimes": 1384,
            "Ġpri": 1385,
            "Ġpresident": 1386,
            "Ġ#": 1387,
            "Ġmill": 1388,
            "Ġprob": 1389,
            "ient": 1390,
            "Ġty": 1391,
            "Ġ!": 1392,
            "ets": 1393,
            "Ġes": 1394,
            "Ġparty": 1395,
            "Ġhaven": 1396,
            "Ġten": 1397,
            "Ġtrans": 1398,
            "Ġinter": 1399,
            "che": 1400,
            "li": 1401,
            "Ġconf": 1402,
            "cess": 1403,
            "Ġheard": 1404,
            "Ġhaving": 1405,
            "born": 1406,
            "Ġsound": 1407,
            "Ġcompan": 1408,
            "aut": 1409,
            "Ġtrying": 1410,
            "Ġgerman": 1411,
            "Ġwatch": 1412,
            "Ġknew": 1413,
            "ok": 1414,
            "ised": 1415,
            "Ġgi": 1416,
            "Ġbring": 1417,
            "Ġoffic": 1418,
            "Ġmonth": 1419,
            "ison": 1420,
            "ution": 1421,
            "Ġcountry": 1422,
            "Ġsong": 1423,
            "ither": 1424,
            "Ġsaying": 1425,
            "Ġidea": 1426,
            "Ġrele": 1427,
            "you": 1428,
            "Ġrecord": 1429,
            "ific": 1430,
            "Ġ-": 1431,
            "Ġwomen": 1432,
            "Ġsle": 1433,
            "Ġpower": 1434,
            "uff": 1435,
            "Ġsoon": 1436,
            "ield": 1437,
            "Ġbusiness": 1438,
            "to": 1439,
            "Ġins": 1440,
            "Ġblack": 1441,
            "Ġton": 1442,
            "enty": 1443,
            "ists": 1444,
            "rop": 1445,
            "artment": 1446,
            "Ġdam": 1447,
            "Ġspeak": 1448,
            "Ġinterest": 1449,
            "Ġexp": 1450,
            "Ġ?": 1451,
            "Ġgone": 1452,
            "ange": 1453,
            "cer": 1454,
            "Ġcase": 1455,
            "Ġimportant": 1456,
            "Ġmatter": 1457,
            "Ġmeans": 1458,
            "Ġeyes": 1459,
            "ster": 1460,
            "Ġ9": 1461,
            "ale": 1462,
            "Ġage": 1463,
            "Ġprof": 1464,
            "Ġwife": 1465,
            "ared": 1466,
            "Ġfight": 1467,
            "imes": 1468,
            "Ġprov": 1469,
            "ize": 1470,
            "Ġdoor": 1471,
            "ative": 1472,
            "Ġgame": 1473,
            "Ġeight": 1474,
            "Ġfore": 1475,
            "Ġbreak": 1476,
            "Ġprobably": 1477,
            "Ġpolit": 1478,
            "ief": 1479,
            "ants": 1480,
            "ying": 1481,
            "ention": 1482,
            "Ġvo": 1483,
            "Ġarea": 1484,
            "ted": 1485,
            "Ġblood": 1486,
            "ism": 1487,
            "lish": 1488,
            "Ġref": 1489,
            "Ġprom": 1490,
            "Ġexpl": 1491,
            "Ġcra": 1492,
            "Ġhat": 1493,
            "Ġbuild": 1494,
            "Ġdra": 1495,
            "Ġlost": 1496,
            "Ġwind": 1497,
            "ced": 1498,
            "Ġhon": 1499,
            "-c": 1500,
            "apan": 1501,
            "ho": 1502,
            "sel": 1503,
            "eter": 1504,
            "ndred": 1505,
            "âĢĻs": 1506,
            "where": 1507,
            "Ġem": 1508,
            "Ġcos": 1509,
            "Ġsho": 1510,
            "Ġhundred": 1511,
            "har": 1512,
            "Ġfriends": 1513,
            "Ġfil": 1514,
            "Ġcertain": 1515,
            "aster": 1516,
            "rew": 1517,
            "Ġprot": 1518,
            "Ġhot": 1519,
            "stem": 1520,
            "Ġunivers": 1521,
            "Ġyourself": 1522,
            "Ġfire": 1523,
            "orrow": 1524,
            "Ġmaj": 1525,
            "Ġgovernment": 1526,
            "Ġjapan": 1527,
            "ined": 1528,
            "most": 1529,
            "Ġext": 1530,
            "Ġasked": 1531,
            "Ġfull": 1532,
            "Ġgave": 1533,
            "Ġtele": 1534,
            "Ġwhite": 1535,
            "Ġago": 1536,
            "ives": 1537,
            "Ġans": 1538,
            "Ġadv": 1539,
            "Ġserv": 1540,
            "Ġstre": 1541,
            "Ġsent": 1542,
            "Ġweek": 1543,
            "ains": 1544,
            "Ġsystem": 1545,
            "Ġalong": 1546,
            "Ġmid": 1547,
            "Ġeat": 1548,
            "Ġmag": 1549,
            "Ġhist": 1550,
            "Ġbas": 1551,
            "Ġaw": 1552,
            "Ġround": 1553,
            "Ġpret": 1554,
            "ene": 1555,
            "Ġgroup": 1556,
            "Ġlate": 1557,
            "Ġhope": 1558,
            "Ġfrance": 1559,
            "Ġbeaut": 1560,
            "Ġproblem": 1561,
            "wer": 1562,
            "Ġbrit": 1563,
            "but": 1564,
            "Ġdef": 1565,
            "Ġbody": 1566,
            "Ġinc": 1567,
            "ax": 1568,
            "Ġju": 1569,
            "bo": 1570,
            "Ġkilled": 1571,
            "Ġleg": 1572,
            "Ġmark": 1573,
            "den": 1574,
            "ane": 1575,
            "Ġbaby": 1576,
            "aw": 1577,
            "Ġcut": 1578,
            "Ġmur": 1579,
            "Ġbat": 1580,
            "Ġhands": 1581,
            "ows": 1582,
            "Ġdeal": 1583,
            "pped": 1584,
            "Ġmad": 1585,
            "Ġhimself": 1586,
            "Ġmoment": 1587,
            "Ġswe": 1588,
            "ages": 1589,
            "Ġshall": 1590,
            "Ġpain": 1591,
            "right": 1592,
            "Ġready": 1593,
            "Ġcouldn": 1594,
            "Ġless": 1595,
            "Ġdiv": 1596,
            "Ġworking": 1597,
            "anna": 1598,
            "dy": 1599,
            "ments": 1600,
            "Ġchange": 1601,
            "Ġmaking": 1602,
            "not": 1603,
            "Ġdou": 1604,
            "Ġline": 1605,
            "Ġelect": 1606,
            "iter": 1607,
            "Ġoften": 1608,
            "amed": 1609,
            "uro": 1610,
            "ized": 1611,
            "Ġgrand": 1612,
            "Ġhappy": 1613,
            "Ġdrink": 1614,
            "wards": 1615,
            "Ġpretty": 1616,
            "Ġap": 1617,
            "Ġstory": 1618,
            "arent": 1619,
            "Ġpick": 1620,
            "ues": 1621,
            "oh": 1622,
            "Ġpap": 1623,
            "Ġstar": 1624,
            "Ġtrue": 1625,
            "Ġreturn": 1626,
            "ched": 1627,
            "ience": 1628,
            "Ġclose": 1629,
            "Ġfree": 1630,
            "Ġtop": 1631,
            "ality": 1632,
            "Ġclub": 1633,
            "Ġsal": 1634,
            "Ġmyself": 1635,
            "ered": 1636,
            "ump": 1637,
            "utes": 1638,
            "Ġir": 1639,
            "Ġcomes": 1640,
            "Ġmarried": 1641,
            "ided": 1642,
            "lo": 1643,
            "Ġsn": 1644,
            "Ġwonder": 1645,
            "Ġupon": 1646,
            "gn": 1647,
            "Ġalone": 1648,
            "Ġcop": 1649,
            "Ġclear": 1650,
            "Ġclass": 1651,
            "Ġsleep": 1652,
            "Ġcreat": 1653,
            "Ġorder": 1654,
            "Ġlooks": 1655,
            "-f": 1656,
            "Ġshort": 1657,
            "Ġpolice": 1658,
            "Ġguess": 1659,
            "Ġnews": 1660,
            "een": 1661,
            "!\"": 1662,
            "Ġdepartment": 1663,
            "ator": 1664,
            "Ġhit": 1665,
            "Ġalb": 1666,
            "Ġalmost": 1667,
            "Ġsometimes": 1668,
            "Ġhowever": 1669,
            "Ġbur": 1670,
            "Ġable": 1671,
            "Ġvis": 1672,
            "rict": 1673,
            "Ġbed": 1674,
            "Ġgoes": 1675,
            "Ġrock": 1676,
            "ats": 1677,
            "Ġenglish": 1678,
            "Ġje": 1679,
            "Ġfif": 1680,
            "Ġbill": 1681,
            "Ġroad": 1682,
            "Ġdie": 1683,
            "Ġfall": 1684,
            "Ġwest": 1685,
            "Ġgeneral": 1686,
            "Ġmic": 1687,
            "Ġtre": 1688,
            "Ġcheck": 1689,
            "velop": 1690,
            "Ġdirect": 1691,
            "Ġcontin": 1692,
            "Ġsecre": 1693,
            "Ġlear": 1694,
            "Ġuniversity": 1695,
            "Ġann": 1696,
            "Ġhor": 1697,
            "Ġcompany": 1698,
            "Ġyork": 1699,
            "used": 1700,
            "Ġpos": 1701,
            "Ġgotta": 1702,
            "Ġjanuary": 1703,
            "str": 1704,
            "Ġmarch": 1705,
            "ured": 1706,
            "Ġshit": 1707,
            "Ġreason": 1708,
            "Ġbecome": 1709,
            "Ġgiven": 1710,
            "Ġsat": 1711,
            "Ġim": 1712,
            "aughter": 1713,
            "ze": 1714,
            "Ġquestion": 1715,
            "Ġdel": 1716,
            "Ġcontro": 1717,
            "Ġexact": 1718,
            "Ġjack": 1719,
            "ley": 1720,
            "Ġleast": 1721,
            "Ġcoun": 1722,
            "Ġadm": 1723,
            "Ġintern": 1724,
            "Ġquick": 1725,
            "iously": 1726,
            "Ġregion": 1727,
            "Ġmakes": 1728,
            "Ġearly": 1729,
            "aces": 1730,
            "Ġori": 1731,
            "Ġmrs": 1732,
            "Ġfootball": 1733,
            "Ġcond": 1734,
            "gy": 1735,
            "Ġprofess": 1736,
            "Ġwanna": 1737,
            "Ġve": 1738,
            "arch": 1739,
            "ility": 1740,
            "cle": 1741,
            "ese": 1742,
            "Ġanim": 1743,
            "ugust": 1744,
            "Ġtrain": 1745,
            "Ġinf": 1746,
            "Ġsil": 1747,
            "Ġpresent": 1748,
            "Ġgun": 1749,
            "Ġfront": 1750,
            "Ġattack": 1751,
            "ude": 1752,
            "Ġhuman": 1753,
            "Ġsold": 1754,
            "Ġcommun": 1755,
            "zy": 1756,
            "Ġwants": 1757,
            "Ġeveryone": 1758,
            "ety": 1759,
            "Ġminutes": 1760,
            "Ġtomorrow": 1761,
            "Ġisland": 1762,
            "haps": 1763,
            "oc": 1764,
            "Ġest": 1765,
            "Ġmer": 1766,
            "Ġliving": 1767,
            "Ġlarge": 1768,
            "ians": 1769,
            "Ġexper": 1770,
            "gue": 1771,
            "Ġlord": 1772,
            "Ġdog": 1773,
            "Ġfre": 1774,
            "Ġpast": 1775,
            "Ġtaking": 1776,
            "igh": 1777,
            "Ġaust": 1778,
            "ges": 1779,
            "Ġtaken": 1780,
            "Ġpur": 1781,
            "Ġmess": 1782,
            "Ġorgan": 1783,
            "ama": 1784,
            "men": 1785,
            "ey": 1786,
            "Ġpublic": 1787,
            "Ġspecial": 1788,
            "osp": 1789,
            "Ġriver": 1790,
            "Ġhuh": 1791,
            "Ġoper": 1792,
            "Ġfucking": 1793,
            "Ġseries": 1794,
            "ically": 1795,
            "ides": 1796,
            "Ġchur": 1797,
            "cent": 1798,
            "Ġlang": 1799,
            "Ġill": 1800,
            "Ġearth": 1801,
            "ler": 1802,
            "Ġdet": 1803,
            "hind": 1804,
            "ham": 1805,
            "Ġtwenty": 1806,
            "Ġeuro": 1807,
            "Ġreleased": 1808,
            "iful": 1809,
            ",âĢĿ": 1810,
            "Ġoffice": 1811,
            "-p": 1812,
            "rench": 1813,
            "Ġdevelop": 1814,
            "band": 1815,
            "Ġocc": 1816,
            "Ġdisc": 1817,
            "Ġdistrict": 1818,
            "Ġeither": 1819,
            "ural": 1820,
            "Ġsun": 1821,
            "Ġanyone": 1822,
            "rence": 1823,
            "ulation": 1824,
            "Ġbrought": 1825,
            "end": 1826,
            "Ġce": 1827,
            "Ġband": 1828,
            "Ġanyway": 1829,
            "Ġstuff": 1830,
            "Ġthinking": 1831,
            "ond": 1832,
            "Ġrom": 1833,
            "Ġpict": 1834,
            "Ġopp": 1835,
            ".âĢĿ": 1836,
            "Ġaugust": 1837,
            "Ġperhaps": 1838,
            "Ġspec": 1839,
            "Ġdece": 1840,
            "Ġbehind": 1841,
            "Ġsqu": 1842,
            "ium": 1843,
            "Ġval": 1844,
            "Ġcomplet": 1845,
            "Ġfood": 1846,
            "Ġbegin": 1847,
            "Ġpartic": 1848,
            "Ġoct": 1849,
            "ering": 1850,
            "Ġhus": 1851,
            "iting": 1852,
            "ries": 1853,
            "ately": 1854,
            "ma": 1855,
            "Ġpark": 1856,
            "Ġmillion": 1857,
            "ober": 1858,
            "Ġtemp": 1859,
            "Ġalbum": 1860,
            "Ġfa": 1861,
            "Ġmajor": 1862,
            "Ġsecret": 1863,
            "ony": 1864,
            "Ġreport": 1865,
            "Ġtou": 1866,
            "Ġwords": 1867,
            "Ġfig": 1868,
            "Ġvi": 1869,
            "Ġstrong": 1870,
            "Ġtonight": 1871,
            "head": 1872,
            "Ġbegan": 1873,
            "Ġsomebody": 1874,
            "Ġsuper": 1875,
            "Ġdoctor": 1876,
            "ards": 1877,
            "Ġpen": 1878,
            "ots": 1879,
            "Ġabs": 1880,
            "Ġbritish": 1881,
            "ptember": 1882,
            "Ġminute": 1883,
            "Ġvill": 1884,
            "hy": 1885,
            "Ġdev": 1886,
            "Ġmember": 1887,
            "Ġapr": 1888,
            "ney": 1889,
            "ousand": 1890,
            "Ġpie": 1891,
            "Ġlooked": 1892,
            "Ġdaughter": 1893,
            "Ġjune": 1894,
            "Ġsever": 1895,
            "Ġbra": 1896,
            "ract": 1897,
            "Ġwhatever": 1898,
            "fic": 1899,
            "ilt": 1900,
            "Ġworry": 1901,
            "oud": 1902,
            "Ġhours": 1903,
            "Ġthousand": 1904,
            "Ġrad": 1905,
            "Ġeast": 1906,
            "Ġchamp": 1907,
            "-d": 1908,
            "-m": 1909,
            "Ġain": 1910,
            "Ġusually": 1911,
            "Ġlived": 1912,
            "Ġexactly": 1913,
            "ee": 1914,
            "Ġorigin": 1915,
            "ush": 1916,
            "Ġstra": 1917,
            "Ġchance": 1918,
            "Ġseven": 1919,
            "Ġbeautiful": 1920,
            "Ġphil": 1921,
            "Ġothers": 1922,
            "-b": 1923,
            "iam": 1924,
            "ones": 1925,
            "Ġinside": 1926,
            "Ġmount": 1927,
            "Ġmot": 1928,
            "Ġlangu": 1929,
            "Ġshut": 1930,
            "Ġtrou": 1931,
            "ches": 1932,
            "lly": 1933,
            "Ġalright": 1934,
            "selves": 1935,
            "Ġforg": 1936,
            "Ġdear": 1937,
            "Ġfrench": 1938,
            "ped": 1939,
            "-h": 1940,
            "Ġsol": 1941,
            "cri": 1942,
            "Ġeverybody": 1943,
            "Ġcommon": 1944,
            "Ġlady": 1945,
            "Ġapril": 1946,
            "vember": 1947,
            "port": 1948,
            "Ġdream": 1949,
            "Ġresp": 1950,
            "bruary": 1951,
            "Ġball": 1952,
            "Ġoctober": 1953,
            "Ġrece": 1954,
            "vision": 1955,
            "Ġtest": 1956,
            "Ġseveral": 1957,
            "Ġdest": 1958,
            "Ġseptember": 1959,
            "Ġnamed": 1960,
            "Ġgold": 1961,
            "Ġallow": 1962,
            "Ġrather": 1963,
            "Ġmonths": 1964,
            "ices": 1965,
            "Ġeurope": 1966,
            "Ġchurch": 1967,
            "Ġphone": 1968,
            "ring": 1969,
            "Ġda": 1970,
            "elt": 1971,
            "Ġinform": 1972,
            "anger": 1973,
            "ional": 1974,
            "Ġsend": 1975,
            "Ġhusband": 1976,
            "Ġvar": 1977,
            "Ġjud": 1978,
            "Ġlab": 1979,
            "-l": 1980,
            "ov": 1981,
            "Ġforget": 1982,
            "Ġmine": 1983,
            "Ġluck": 1984,
            "-t": 1985,
            "Ġwall": 1986,
            "Ġeasy": 1987,
            "Ġum": 1988,
            "Ġcharac": 1989,
            "key": 1990,
            "Ġbir": 1991,
            "Ġsex": 1992,
            "dle": 1993,
            "Ġvict": 1994,
            "ford": 1995,
            "Ġexpect": 1996,
            "Ġjuly": 1997,
            "Ġaren": 1998,
            "Ġstep": 1999,
            "Ġdecember": 2000,
            "Ġexcuse": 2001,
            "Ġcat": 2002,
            "bs": 2003,
            "ai": 2004,
            "alth": 2005,
            "ider": 2006,
            "Ġdin": 2007,
            "atic": 2008,
            "Ġtot": 2009,
            "Ġpal": 2010,
            "erv": 2011,
            "Ġsea": 2012,
            "Ġport": 2013,
            "Ġgeor": 2014,
            "Ġgra": 2015,
            "itten": 2016,
            "Ġworked": 2017,
            "Ġplayer": 2018,
            "Ġsupport": 2019,
            "rie": 2020,
            "Ġsimp": 2021,
            "unch": 2022,
            "Ġav": 2023,
            "Ġhy": 2024,
            "Ġprotect": 2025,
            "Ġknows": 2026,
            "Ġanswer": 2027,
            "Ġmor": 2028,
            "hern": 2029,
            "ounds": 2030,
            "Ġoutside": 2031,
            "app": 2032,
            "Ġdark": 2033,
            "Ġnovember": 2034,
            "Ġru": 2035,
            "Ġfebruary": 2036,
            "Ġcourt": 2037,
            "Ġwish": 2038,
            "oke": 2039,
            "come": 2040,
            "ample": 2041,
            "Ġsumm": 2042,
            "uction": 2043,
            "Ġsam": 2044,
            "bert": 2045,
            "inc": 2046,
            "ove": 2047,
            "Ġsucc": 2048,
            "Ġcam": 2049,
            "sy": 2050,
            "Ġcamp": 2051,
            "ode": 2052,
            "Ġhistory": 2053,
            "Ġimm": 2054,
            "Ġfair": 2055,
            "ding": 2056,
            "Ġbuy": 2057,
            "ert": 2058,
            "Ġplaying": 2059,
            "go": 2060,
            "Ġtried": 2061,
            "ived": 2062,
            "Ġtrust": 2063,
            "Ġcaptain": 2064,
            "Ġpull": 2065,
            "Ġpossible": 2066,
            "ories": 2067,
            "Ġship": 2068,
            "ipp": 2069,
            "Ġpress": 2070,
            "-w": 2071,
            "Ġtreat": 2072,
            "Ġtelevision": 2073,
            "Ġcareer": 2074,
            "Ġgets": 2075,
            "Ġcoup": 2076,
            "bed": 2077,
            "eth": 2078,
            "Ġformer": 2079,
            "unt": 2080,
            "con": 2081,
            "Ġgent": 2082,
            "Ġwithin": 2083,
            "ency": 2084,
            "Ġturned": 2085,
            "Ġarm": 2086,
            "Ġequ": 2087,
            "ained": 2088,
            "Ġmun": 2089,
            "Ġsuccess": 2090,
            "Ġsweet": 2091,
            "Ġreco": 2092,
            "Ġstreet": 2093,
            "Ġwood": 2094,
            "Ġsister": 2095,
            "mbers": 2096,
            "lex": 2097,
            "aced": 2098,
            ".s": 2099,
            "Ġdan": 2100,
            "ology": 2101,
            "Ġtruth": 2102,
            "Ġseems": 2103,
            "umb": 2104,
            "gest": 2105,
            "Ġben": 2106,
            "hen": 2107,
            "ndon": 2108,
            "irty": 2109,
            "Ġhang": 2110,
            "und": 2111,
            "Ġcir": 2112,
            "Ġthird": 2113,
            "âĢĵ": 2114,
            "Ġcontrol": 2115,
            "Ġparent": 2116,
            "Ġsus": 2117,
            "Ġcost": 2118,
            "Ġarmy": 2119,
            "Ġvoice": 2120,
            "Ġsingle": 2121,
            "ully": 2122,
            "els": 2123,
            "Ġshot": 2124,
            "raid": 2125,
            "Ġrid": 2126,
            "Ġboys": 2127,
            "unk": 2128,
            "ape": 2129,
            "Ġvir": 2130,
            "Ġcannot": 2131,
            "Ġgirls": 2132,
            "Ġconcer": 2133,
            "Ġgrow": 2134,
            "itting": 2135,
            "cil": 2136,
            "Ġkids": 2137,
            "Ġhosp": 2138,
            "Ġcomplete": 2139,
            "par": 2140,
            "Ġmoved": 2141,
            "vered": 2142,
            "Ġsupposed": 2143,
            "uce": 2144,
            "com": 2145,
            "Ġlie": 2146,
            "ming": 2147,
            "Ġnin": 2148,
            "Ġdav": 2149,
            "idence": 2150,
            "Ġauth": 2151,
            "Ġlives": 2152,
            "Ġafraid": 2153,
            "Ġital": 2154,
            "Ġproduc": 2155,
            "Ġacross": 2156,
            "ior": 2157,
            "Ġwhether": 2158,
            "Ġconst": 2159,
            "Ġcouple": 2160,
            "oul": 2161,
            "Ġcre": 2162,
            "Ġcommune": 2163,
            "fort": 2164,
            "gram": 2165,
            "Ġdem": 2166,
            "ii": 2167,
            "Ġfur": 2168,
            "icip": 2169,
            "iving": 2170,
            "Ġx": 2171,
            "Ġstat": 2172,
            "que": 2173,
            "Ġcold": 2174,
            "Ġrepres": 2175,
            "Ġcross": 2176,
            "nded": 2177,
            "Ġlad": 2178,
            "Ġlondon": 2179,
            "Ġheld": 2180,
            "Ġrob": 2181,
            "Ġexample": 2182,
            "Ġhair": 2183,
            "Ġpopulation": 2184,
            "rod": 2185,
            "Ġwritten": 2186,
            "Ġcla": 2187,
            "well": 2188,
            "Ġwel": 2189,
            "Ġgreen": 2190,
            "Ġnobody": 2191,
            "Ġpoor": 2192,
            "Ġshoot": 2193,
            "Ġ$": 2194,
            "Ġwaiting": 2195,
            "Ġtrouble": 2196,
            "Ġmembers": 2197,
            "ĠÂ": 2198,
            "Ġsell": 2199,
            "Ġmart": 2200,
            "Ġhurt": 2201,
            "ament": 2202,
            "Ġang": 2203,
            "Ġfeet": 2204,
            "Ġbuilding": 2205,
            "airs": 2206,
            "more": 2207,
            "Ġgener": 2208,
            "Ġlau": 2209,
            "aint": 2210,
            "Ġworks": 2211,
            "ffect": 2212,
            "Ġstation": 2213,
            "Ġcentury": 2214,
            "Ġbirth": 2215,
            "Ġengland": 2216,
            "what": 2217,
            "ino": 2218,
            "Ġservice": 2219,
            "Ġsec": 2220,
            "Ġconn": 2221,
            "rog": 2222,
            "Ġfelt": 2223,
            "Ġproper": 2224,
            "ffe": 2225,
            "Ġperfect": 2226,
            "âĢĶ": 2227,
            "Ġgames": 2228,
            "ept": 2229,
            "ob": 2230,
            "Ġcup": 2231,
            "Ġruss": 2232,
            "Ġwrote": 2233,
            "Ġperform": 2234,
            "Ġdesign": 2235,
            "Ġseason": 2236,
            "Ġnine": 2237,
            "Ġauthor": 2238,
            "Ġdiffic": 2239,
            "ead": 2240,
            "Ġver": 2241,
            "Ġwear": 2242,
            "raph": 2243,
            "ald": 2244,
            "Ġchanged": 2245,
            "Ġusing": 2246,
            "room": 2247,
            "Ġappear": 2248,
            "Ġcrazy": 2249,
            "ician": 2250,
            "Ġfrank": 2251,
            "Ġpet": 2252,
            "Ġnorm": 2253,
            "Ġfav": 2254,
            "Ġlow": 2255,
            "Ġdamn": 2256,
            "Ġbud": 2257,
            "Ġbull": 2258,
            "Ġbuilt": 2259,
            "Ġmass": 2260,
            "Ġpost": 2261,
            "Ġran": 2262,
            "Ġsud": 2263,
            "Ġber": 2264,
            "Ġden": 2265,
            "Ġrequ": 2266,
            "Ġmum": 2267,
            "gress": 2268,
            "Ġant": 2269,
            "Ġdeep": 2270,
            "Ġteac": 2271,
            "ature": 2272,
            "Ġneeds": 2273,
            "Ġrepl": 2274,
            "Ġeffect": 2275,
            "itch": 2276,
            "Ġinternational": 2277,
            "oor": 2278,
            "Ġtill": 2279,
            "Ġhospital": 2280,
            "Ġchair": 2281,
            "ances": 2282,
            "Ġprogram": 2283,
            "Ġrunning": 2284,
            "Ġpaul": 2285,
            "eng": 2286,
            "idge": 2287,
            "ye": 2288,
            "Ġfield": 2289,
            "Ġsave": 2290,
            "Ġcry": 2291,
            "Ġamong": 2292,
            "Ġ*": 2293,
            "ky": 2294,
            "Ġmal": 2295,
            "Ġdar": 2296,
            "fully": 2297,
            "cr": 2298,
            "Ġhen": 2299,
            "Ġlevel": 2300,
            "of": 2301,
            "Ġcast": 2302,
            "la": 2303,
            "Ġmunicip": 2304,
            "eared": 2305,
            "Ġmist": 2306,
            "Ġgentle": 2307,
            "Ġleague": 2308,
            "Ġscot": 2309,
            "Ġsense": 2310,
            "Ġclean": 2311,
            "Ġcommand": 2312,
            "Ġlocal": 2313,
            "Ġseat": 2314,
            "Ġfollowing": 2315,
            "ached": 2316,
            "ike": 2317,
            "Ġbox": 2318,
            "Ġsocial": 2319,
            "uk": 2320,
            "Ġmiddle": 2321,
            "Ġcompet": 2322,
            "cause": 2323,
            "ination": 2324,
            "Ġprop": 2325,
            "Ġpract": 2326,
            "Ġlonger": 2327,
            "Ġrepresent": 2328,
            "Ġprison": 2329,
            "Ġincluding": 2330,
            "Ġburn": 2331,
            "bit": 2332,
            "Ġbased": 2333,
            "Ġtouch": 2334,
            "Ġbeat": 2335,
            "cha": 2336,
            "though": 2337,
            "Ġwrite": 2338,
            "Ġange": 2339,
            "Ġtype": 2340,
            "Ġ)": 2341,
            "lect": 2342,
            "Ġamerica": 2343,
            "Ġtelling": 2344,
            "Ġfut": 2345,
            "Ġfly": 2346,
            "Ġsen": 2347,
            "Ġcool": 2348,
            "Ġmod": 2349,
            "Ġdefe": 2350,
            "Ġminister": 2351,
            "dom": 2352,
            "Ġaward": 2353,
            "ĠÌ": 2354,
            "Ġones": 2355,
            "Ġparents": 2356,
            "lished": 2357,
            "Ġmaster": 2358,
            "Ġblue": 2359,
            "Ġaccept": 2360,
            "Ġcolle": 2361,
            "Ġlik": 2362,
            "Ġparticular": 2363,
            "Ġfilm": 2364,
            "Ġlay": 2365,
            "Ġstraight": 2366,
            "Ġhall": 2367,
            "ases": 2368,
            "Ġcouncil": 2369,
            "Ġresult": 2370,
            "aged": 2371,
            "ru": 2372,
            "Ġappro": 2373,
            "Ġcorn": 2374,
            "Ġfamous": 2375,
            "read": 2376,
            "Ġevent": 2377,
            "Ġfast": 2378,
            "Ġpot": 2379,
            "Ġshop": 2380,
            "Ġworth": 2381,
            "Ġrev": 2382,
            "Ġvol": 2383,
            "Ġprev": 2384,
            "Ġjes": 2385,
            "Ġsurpr": 2386,
            "Ġric": 2387,
            "Ġvie": 2388,
            "ara": 2389,
            "Ġsudden": 2390,
            "tom": 2391,
            "Ġrul": 2392,
            "Ġinformation": 2393,
            "oint": 2394,
            "Ġcurrent": 2395,
            "Ġdisco": 2396,
            "ued": 2397,
            "Ġlanguage": 2398,
            "Ġdanger": 2399,
            "Ġsand": 2400,
            "Ġhill": 2401,
            "Ġground": 2402,
            "ement": 2403,
            "Ġinstead": 2404,
            "Ġpaper": 2405,
            "for": 2406,
            "Ġsafe": 2407,
            "Ġconv": 2408,
            "ana": 2409,
            "Ġfeeling": 2410,
            "ified": 2411,
            "Ġhig": 2412,
            "Ġtur": 2413,
            "Ġfail": 2414,
            "Ġlat": 2415,
            "Ġsugg": 2416,
            "emy": 2417,
            "asure": 2418,
            "Ġclot": 2419,
            "Ġaustral": 2420,
            "iod": 2421,
            "Ġpriv": 2422,
            "Ġlos": 2423,
            "Ġsuggest": 2424,
            "ron": 2425,
            "Ġcreated": 2426,
            "ently": 2427,
            "Ġmem": 2428,
            "teen": 2429,
            "Ġsick": 2430,
            "Ġspace": 2431,
            "Ġfell": 2432,
            "Ġmeeting": 2433,
            "Ġdut": 2434,
            "Ġcapital": 2435,
            "Ġcharacter": 2436,
            "Ġnort": 2437,
            "Ġimag": 2438,
            "Ġchief": 2439,
            "Ġgermany": 2440,
            "hm": 2441,
            "iff": 2442,
            "Ġstri": 2443,
            "ising": 2444,
            "Ġalthough": 2445,
            "yn": 2446,
            "Ġanybody": 2447,
            "Ġdi": 2448,
            "Ġtech": 2449,
            "uel": 2450,
            "Ġterri": 2451,
            "Ġcanad": 2452,
            "view": 2453,
            "roy": 2454,
            "Ġgar": 2455,
            "Ġcho": 2456,
            "Ġpopular": 2457,
            "Ġhol": 2458,
            "olute": 2459,
            "Ġep": 2460,
            "Ġesc": 2461,
            "Ġinvol": 2462,
            "Ġposition": 2463,
            "Ġaccord": 2464,
            "bur": 2465,
            "Ġcell": 2466,
            "ĠÌģ": 2467,
            "Ġweeks": 2468,
            "Ġforce": 2469,
            "Ġkept": 2470,
            "Ġlim": 2471,
            "fer": 2472,
            "Ġphot": 2473,
            "Ġview": 2474,
            "Ġyours": 2475,
            "Ġconnect": 2476,
            "Ġtour": 2477,
            "Ġslow": 2478,
            "omb": 2479,
            "Ġexcept": 2480,
            "Ġciv": 2481,
            "cially": 2482,
            "Ġdress": 2483,
            "Ġtrad": 2484,
            "Ġring": 2485,
            "Ġinvest": 2486,
            "Ġquiet": 2487,
            "Ġbank": 2488,
            "itions": 2489,
            "Ġeduc": 2490,
            "avy": 2491,
            "Ġarri": 2492,
            "Ġdro": 2493,
            "ery": 2494,
            "uation": 2495,
            "Ġterm": 2496,
            "Ġur": 2497,
            "Ġtable": 2498,
            "Ġnet": 2499,
            "Ġlou": 2500,
            "Ġterr": 2501,
            "Ġproblems": 2502,
            "Ġtakes": 2503,
            "ging": 2504,
            "sc": 2505,
            "Ġmach": 2506,
            "Ġvillage": 2507,
            "Ġgeorge": 2508,
            "king": 2509,
            "Ġabsolute": 2510,
            "Ġentire": 2511,
            "Ġ..": 2512,
            "Ġdifficult": 2513,
            "Ġcollege": 2514,
            "that": 2515,
            "Ġperiod": 2516,
            "Ġfuture": 2517,
            "Ġleaving": 2518,
            "Ġcomput": 2519,
            "Ġletter": 2520,
            "acy": 2521,
            "Ġdavid": 2522,
            "Ġjapanese": 2523,
            "Ġtit": 2524,
            "Ġfunny": 2525,
            "Ġafric": 2526,
            "yal": 2527,
            "Ġbye": 2528,
            "Ġiss": 2529,
            "bt": 2530,
            "itive": 2531,
            "ole": 2532,
            "ager": 2533,
            "Ġlaugh": 2534,
            "ublic": 2535,
            "ened": 2536,
            "Ġmoder": 2537,
            "Ġstup": 2538,
            "Ġphys": 2539,
            "nding": 2540,
            "Ġye": 2541,
            "hael": 2542,
            "Ġeye": 2543,
            "Ġbird": 2544,
            "Ġalive": 2545,
            "Ġdescri": 2546,
            "lin": 2547,
            "Ġcarry": 2548,
            "nes": 2549,
            "Ġbooks": 2550,
            "Ġsan": 2551,
            "Ġspir": 2552,
            "Ġsout": 2553,
            "Ġglad": 2554,
            "Ġhealth": 2555,
            "Ġwelcome": 2556,
            "yle": 2557,
            "Ġfort": 2558,
            "Ġabove": 2559,
            "Ġcivil": 2560,
            "Ġaut": 2561,
            "estern": 2562,
            "Ġdrive": 2563,
            "Ġmis": 2564,
            "Ġet": 2565,
            "Ġviol": 2566,
            "Ġfem": 2567,
            "Ġwed": 2568,
            "Ġstupid": 2569,
            "urs": 2570,
            "Ġdinner": 2571,
            "ission": 2572,
            "Ġbreat": 2573,
            "Ġmeant": 2574,
            "Ġsuppose": 2575,
            "ls": 2576,
            "Ġlock": 2577,
            "Ġchampions": 2578,
            "Ġooh": 2579,
            "Ġvide": 2580,
            "Ġfinally": 2581,
            "Ġdecided": 2582,
            "mer": 2583,
            "lt": 2584,
            "Ġjim": 2585,
            "Ġtechn": 2586,
            "Ġcook": 2587,
            "olution": 2588,
            "Ġhappens": 2589,
            "Ġcover": 2590,
            "Ġice": 2591,
            "gar": 2592,
            "Ġobv": 2593,
            "Ġobject": 2594,
            "Ġenj": 2595,
            "ret": 2596,
            "oose": 2597,
            "Ġcatch": 2598,
            "Ġrepublic": 2599,
            "Ġjer": 2600,
            "ula": 2601,
            "Ġcollect": 2602,
            "Ġcult": 2603,
            "Ġseemed": 2604,
            "ka": 2605,
            "Ġlose": 2606,
            "Ġcertainly": 2607,
            "Ġcard": 2608,
            "hel": 2609,
            "Ġhate": 2610,
            "Ġrespect": 2611,
            "itary": 2612,
            "Ġahead": 2613,
            "xic": 2614,
            "Ġfinished": 2615,
            "ument": 2616,
            "Ġpolitician": 2617,
            "Ġsummer": 2618,
            "Ġsoci": 2619,
            "Ġroll": 2620,
            "Ġfed": 2621,
            "Ġhan": 2622,
            "Ġhoney": 2623,
            "Ġdisapp": 2624,
            "Ġaccording": 2625,
            "ograph": 2626,
            "Ġwal": 2627,
            "hard": 2628,
            "ken": 2629,
            "lu": 2630,
            "Ġmiles": 2631,
            "Ġbag": 2632,
            "work": 2633,
            "ille": 2634,
            "Ġcy": 2635,
            "Ġpeace": 2636,
            "Ġthemselves": 2637,
            "Ġunion": 2638,
            "Ġjames": 2639,
            "Ġanymore": 2640,
            "ilar": 2641,
            "ata": 2642,
            "Ġevening": 2643,
            "oth": 2644,
            "Ġinde": 2645,
            "pes": 2646,
            "omin": 2647,
            "Ġpiece": 2648,
            "Ġban": 2649,
            "soci": 2650,
            "Ġserious": 2651,
            "Ġexist": 2652,
            "Ġhurry": 2653,
            "Ġwilliam": 2654,
            "Ġengine": 2655,
            "Ġpicture": 2656,
            "Ġenjoy": 2657,
            "Ġlearn": 2658,
            "Ġsounds": 2659,
            "Ġsuff": 2660,
            "itz": 2661,
            "Ġrese": 2662,
            "Ġcommitt": 2663,
            "Ġcause": 2664,
            "Ġvers": 2665,
            "iday": 2666,
            "itor": 2667,
            "Ġcens": 2668,
            "Ġfix": 2669,
            "Ġord": 2670,
            "Ġdue": 2671,
            "cy": 2672,
            "gu": 2673,
            "Ġwat": 2674,
            "Ġrelig": 2675,
            "Ġspecies": 2676,
            "ping": 2677,
            "med": 2678,
            "ival": 2679,
            "Ġrelations": 2680,
            "Ġmichael": 2681,
            "Ġsad": 2682,
            "ored": 2683,
            "Ġcountries": 2684,
            "Ġfill": 2685,
            "Ġagre": 2686,
            "Ġshouldn": 2687,
            "Ġrecogn": 2688,
            "Ġindian": 2689,
            "Ġfish": 2690,
            "Ġforward": 2691,
            "Ġide": 2692,
            "Ġbattle": 2693,
            "Ġcirc": 2694,
            "ray": 2695,
            "Ġmhm": 2696,
            "Ġthirty": 2697,
            "Ġprocess": 2698,
            "Ġself": 2699,
            "iers": 2700,
            "Ġthrow": 2701,
            "Ġinclude": 2702,
            "Ġfigure": 2703,
            "Ġjesus": 2704,
            "Ġparts": 2705,
            "Ġkiss": 2706,
            "Ġclos": 2707,
            "Ġjour": 2708,
            "inal": 2709,
            "Ġmunicipality": 2710,
            "Ġplaces": 2711,
            "Ġboard": 2712,
            "Ġboss": 2713,
            "arr": 2714,
            "Ġreceived": 2715,
            "Ġincre": 2716,
            "Ġfurther": 2717,
            "Ġassoci": 2718,
            "cut": 2719,
            "ization": 2720,
            "Ġquickly": 2721,
            "Ã¶": 2722,
            "nday": 2723,
            "Ġmoving": 2724,
            "like": 2725,
            "Ġpeter": 2726,
            "mas": 2727,
            "Ġdraw": 2728,
            "Ġroman": 2729,
            "Ġdate": 2730,
            "\")": 2731,
            "Ġjul": 2732,
            "Ġsomewhere": 2733,
            "Ġrespons": 2734,
            "Ġdirector": 2735,
            "Ġmir": 2736,
            "Ġpounds": 2737,
            "Ġmouth": 2738,
            "Ġnecess": 2739,
            "Ġcentral": 2740,
            "Ġrail": 2741,
            "Ġfifty": 2742,
            "Ġscient": 2743,
            "Ġmention": 2744,
            "Ġgiving": 2745,
            "Ġrace": 2746,
            "pecially": 2747,
            "Ġmodern": 2748,
            "Ġfool": 2749,
            "Ġrich": 2750,
            "Ġstage": 2751,
            "ift": 2752,
            "Ġstrange": 2753,
            "Ġlu": 2754,
            "Ġrain": 2755,
            "Ġitself": 2756,
            "Ġquestions": 2757,
            "Ġpassed": 2758,
            "Ġtrack": 2759,
            "Ġcensus": 2760,
            "how": 2761,
            "ption": 2762,
            "Ġdrug": 2763,
            "Ġpolitical": 2764,
            "ius": 2765,
            "Ġdefin": 2766,
            "Ġwow": 2767,
            "iforn": 2768,
            "Ġâ": 2769,
            "Ġweren": 2770,
            "Ġplays": 2771,
            "Ġsport": 2772,
            "ae": 2773,
            "Ġhost": 2774,
            "nel": 2775,
            "Ġarch": 2776,
            "Ġgard": 2777,
            "Ġris": 2778,
            "Ġpromise": 2779,
            "bor": 2780,
            "Ġofficer": 2781,
            "Ġindia": 2782,
            "Ġpolic": 2783,
            "Ġled": 2784,
            "Ġcab": 2785,
            "gen": 2786,
            "ago": 2787,
            "Ġ(\"": 2788,
            "Ġcaliforn": 2789,
            "Ġaccount": 2790,
            "Ġstick": 2791,
            "Ġindust": 2792,
            "conom": 2793,
            "Ġasking": 2794,
            "Ġbes": 2795,
            "Ġpack": 2796,
            "Ġgas": 2797,
            "owers": 2798,
            "Ġactor": 2799,
            "zz": 2800,
            "riend": 2801,
            "Ġbal": 2802,
            "Ġfinal": 2803,
            "chan": 2804,
            "Ġrole": 2805,
            "Ġneeded": 2806,
            "Ġpan": 2807,
            "Ġhung": 2808,
            "ship": 2809,
            "ston": 2810,
            "ya": 2811,
            "Ġradio": 2812,
            "-e": 2813,
            "Ġhorse": 2814,
            "Ġmurder": 2815,
            "Ġtravel": 2816,
            "Ġkey": 2817,
            "kn": 2818,
            "Ã¡": 2819,
            "rian": 2820,
            "Ġespecially": 2821,
            "Ġcalifornia": 2822,
            "Ġserved": 2823,
            "Ġquar": 2824,
            "Ġbought": 2825,
            "Ġparis": 2826,
            "Ġcrit": 2827,
            "Ġconsider": 2828,
            "Ġabsolutely": 2829,
            "line": 2830,
            "Ġuncle": 2831,
            "Ġactiv": 2832,
            "Ġforgot": 2833,
            "bers": 2834,
            "riage": 2835,
            "Ġdestroy": 2836,
            "Ġmatch": 2837,
            "Ġeconom": 2838,
            "Ġbeginning": 2839,
            "Ġtree": 2840,
            "Ġsimilar": 2841,
            "Ġsurv": 2842,
            "Ġrac": 2843,
            "Ġprovince": 2844,
            "Ġqueen": 2845,
            "Ġwild": 2846,
            "Ġdance": 2847,
            "Ġclim": 2848,
            "ression": 2849,
            "ences": 2850,
            "Ġpaid": 2851,
            "Ġnatural": 2852,
            "old": 2853,
            "Ġfear": 2854,
            "cher": 2855,
            "Ġcenter": 2856,
            "Ġkingdom": 2857,
            "Ġsituation": 2858,
            "Ġpurp": 2859,
            "ergy": 2860,
            "ica": 2861,
            "Ġmary": 2862,
            "Ġwhose": 2863,
            "Ġfing": 2864,
            "Ġcharl": 2865,
            ".'": 2866,
            "iot": 2867,
            "Ġjew": 2868,
            "Ġfat": 2869,
            "Ġstars": 2870,
            "Ġvideo": 2871,
            "reme": 2872,
            "Ġvan": 2873,
            "Ġdu": 2874,
            "Ġnone": 2875,
            "Ġdaddy": 2876,
            "Ġsubject": 2877,
            "Ġhonest": 2878,
            "Ġjoin": 2879,
            "Ġmov": 2880,
            "Ġarrest": 2881,
            "Ġdemo": 2882,
            "Ġbecom": 2883,
            "mon": 2884,
            "aff": 2885,
            "iding": 2886,
            "Ġaccident": 2887,
            "ires": 2888,
            "uit": 2889,
            "wh": 2890,
            "Ġaction": 2891,
            "Ġsimple": 2892,
            "Ġhun": 2893,
            "Ġmilitary": 2894,
            "rect": 2895,
            "Ġannoun": 2896,
            "Ġbrown": 2897,
            "Ġbelong": 2898,
            "ids": 2899,
            "Ġsoul": 2900,
            "Ġfloor": 2901,
            "-y": 2902,
            "Ġneigh": 2903,
            "erve": 2904,
            "âĢĻt": 2905,
            "Ġstopped": 2906,
            "Ġbroad": 2907,
            "Ġtv": 2908,
            "Ġtotal": 2909,
            "Ġteacher": 2910,
            "Ġsepar": 2911,
            "Ġrose": 2912,
            "Ġvisit": 2913,
            "edi": 2914,
            "Ġbear": 2915,
            "cell": 2916,
            "Ġprofessional": 2917,
            "Ġchampionship": 2918,
            "field": 2919,
            "Ġwhoa": 2920,
            "Ġaff": 2921,
            "bye": 2922,
            "Ġobs": 2923,
            "ume": 2924,
            "Ġsoft": 2925,
            "Ġseeing": 2926,
            "Ġexplain": 2927,
            "Ġallowed": 2928,
            "Ġclaim": 2929,
            "Ġcand": 2930,
            "iment": 2931,
            "Ġcaught": 2932,
            "Ġtro": 2933,
            "dd": 2934,
            "Ġaud": 2935,
            "amb": 2936,
            "Ġdoc": 2937,
            "Ġlargest": 2938,
            "Ġevidence": 2939,
            "-n": 2940,
            "Ġprep": 2941,
            "Ġbase": 2942,
            "Ġbeha": 2943,
            "Ġdirected": 2944,
            "ades": 2945,
            "Ġwriting": 2946,
            "empt": 2947,
            "akes": 2948,
            "ffee": 2949,
            "Ġpun": 2950,
            "Ġsar": 2951,
            "Ġdoll": 2952,
            "Ġbob": 2953,
            "Ġneg": 2954,
            "Ġlovely": 2955,
            "Ġexam": 2956,
            "Ġmovies": 2957,
            "Ġglass": 2958,
            "Ġalex": 2959,
            "Ġwashing": 2960,
            "Ġamaz": 2961,
            "Ġtar": 2962,
            "Ġnature": 2963,
            "?âĢĿ": 2964,
            "ivid": 2965,
            "epend": 2966,
            "Ġmater": 2967,
            "Ġken": 2968,
            "Ġtea": 2969,
            "Ġproject": 2970,
            "Ġamount": 2971,
            "Ġpersonal": 2972,
            "Ġleader": 2973,
            "Ġdemocr": 2974,
            "Ġintrod": 2975,
            "Ġweap": 2976,
            "por": 2977,
            "Ġnon": 2978,
            "Ġoriginal": 2979,
            "terday": 2980,
            "off": 2981,
            "Ġsociety": 2982,
            "Ġmarket": 2983,
            "Ġherself": 2984,
            "Ġextra": 2985,
            "Ġbene": 2986,
            "Ġrobert": 2987,
            "Ġanimals": 2988,
            "urity": 2989,
            "ceed": 2990,
            "Ġchristmas": 2991,
            "Ġident": 2992,
            "Ġpsy": 2993,
            "Ġcomputer": 2994,
            "nal": 2995,
            "Ġbell": 2996,
            "Ġshar": 2997,
            "Ġdiscuss": 2998,
            "Ġearl": 2999,
            "Ġyesterday": 3000,
            "Ġmel": 3001,
            "Ġtowards": 3002,
            "Ġhom": 3003,
            "aur": 3004,
            "Ġcoffee": 3005,
            "uses": 3006,
            "Ġafterno": 3007,
            "Ġshows": 3008,
            "Ġfellow": 3009,
            "Ġbroke": 3010,
            "pper": 3011,
            "wood": 3012,
            "Ġdig": 3013,
            "Ġmexic": 3014,
            "Ġsinger": 3015,
            "inary": 3016,
            "Ġbloody": 3017,
            "asons": 3018,
            "loy": 3019,
            "Ġcharge": 3020,
            "Ġprivate": 3021,
            "Ġloved": 3022,
            "Ġeh": 3023,
            "Ġofficial": 3024,
            "Ġcust": 3025,
            "cious": 3026,
            "Ġspirit": 3027,
            "Ġindeed": 3028,
            "hood": 3029,
            "Ġunless": 3030,
            "ils": 3031,
            "Ġwhom": 3032,
            "Ġdoubt": 3033,
            "Ġbow": 3034,
            "ishing": 3035,
            "Ġcamer": 3036,
            "Ġbrain": 3037,
            "rap": 3038,
            "Ġinteresting": 3039,
            "Ġcaused": 3040,
            "Ġsitting": 3041,
            "Ġdepe": 3042,
            "Ġstanding": 3043,
            "Ġnorthern": 3044,
            "Ġroyal": 3045,
            "Ġstudy": 3046,
            "irt": 3047,
            "Ġdrop": 3048,
            "Ġbi": 3049,
            "Ġsuddenly": 3050,
            "Ġindepend": 3051,
            "cient": 3052,
            "yer": 3053,
            "Ġattention": 3054,
            "Ġafternoon": 3055,
            "Ġstone": 3056,
            "Ġspan": 3057,
            "Ġwestern": 3058,
            "Ġmix": 3059,
            "Ġsev": 3060,
            "ially": 3061,
            "Ġenergy": 3062,
            "Ġcompletely": 3063,
            "Ġcommunity": 3064,
            "Ġspent": 3065,
            "af": 3066,
            "Ġeff": 3067,
            "Ġtax": 3068,
            "ference": 3069,
            "Ġaged": 3070,
            "Ġcro": 3071,
            "Ġhonor": 3072,
            "Ġhero": 3073,
            "Ġwide": 3074,
            "Ġfamil": 3075,
            "Ġarg": 3076,
            "Ġnames": 3077,
            "Ġopened": 3078,
            "Ġfer": 3079,
            "Ġ()": 3080,
            "Ġmc": 3081,
            "Ġemploy": 3082,
            "Ġow": 3083,
            "val": 3084,
            "Ġreached": 3085,
            "Ġrichard": 3086,
            "Ġsmell": 3087,
            "Ġpsych": 3088,
            "Ġscience": 3089,
            "Ġinvolved": 3090,
            "Ġwonderful": 3091,
            "Ġcareful": 3092,
            "Ġwindow": 3093,
            "Ġnick": 3094,
            "Ġpossib": 3095,
            "Ġprofessor": 3096,
            "iny": 3097,
            "Ġhous": 3098,
            "Ġstorm": 3099,
            "Ġplant": 3100,
            "Ġheavy": 3101,
            "Ġnearly": 3102,
            "....": 3103,
            "Ġmac": 3104,
            "Ġscared": 3105,
            "ressed": 3106,
            "Ġrelationship": 3107,
            "Ġrap": 3108,
            "Ġwit": 3109,
            "Ġgree": 3110,
            "Ġox": 3111,
            "Ġnormal": 3112,
            "oon": 3113,
            "Ġrights": 3114,
            "board": 3115,
            "aven": 3116,
            "Ġoly": 3117,
            "Ġcomb": 3118,
            "Ġinstr": 3119,
            "Ġinflu": 3120,
            "Ġray": 3121,
            "Ġjump": 3122,
            "Ġclothes": 3123,
            "Ġtor": 3124,
            "ites": 3125,
            "Ġexperience": 3126,
            "enth": 3127,
            "Ġgrad": 3128,
            "Ġmas": 3129,
            "ki": 3130,
            "dered": 3131,
            "Ġchem": 3132,
            "Ġknock": 3133,
            "istics": 3134,
            "Ġappeared": 3135,
            "Ġimmedi": 3136,
            "Ġestab": 3137,
            "Ġ--": 3138,
            "Ġcalling": 3139,
            "Ġegg": 3140,
            "Ġguard": 3141,
            "Ġdise": 3142,
            "het": 3143,
            "Ġladies": 3144,
            "Ġol": 3145,
            "ugg": 3146,
            "Ġfault": 3147,
            "inct": 3148,
            "antic": 3149,
            "-in": 3150,
            "Ġindivid": 3151,
            "Ġsecurity": 3152,
            "vi": 3153,
            "Ġcrime": 3154,
            "Ġhenry": 3155,
            "Ġkick": 3156,
            "ops": 3157,
            "Ġmax": 3158,
            "Ġworse": 3159,
            "Ã¼": 3160,
            "llen": 3161,
            "ena": 3162,
            "can": 3163,
            "Ġlake": 3164,
            "Ġcolor": 3165,
            "do": 3166,
            "ope": 3167,
            "Ġmarry": 3168,
            "Ġtick": 3169,
            "uts": 3170,
            "Ġobviously": 3171,
            "ensive": 3172,
            "Ġgovernor": 3173,
            "Ġblow": 3174,
            "Ġfinish": 3175,
            "Ġgives": 3176,
            "Ġhistor": 3177,
            "Ġways": 3178,
            "Ġya": 3179,
            "eal": 3180,
            "Ġchoice": 3181,
            "Ġfollowed": 3182,
            "Ġproduct": 3183,
            "Ġhasn": 3184,
            "Ġbirthday": 3185,
            "ancy": 3186,
            "Ġancient": 3187,
            "Ġfavor": 3188,
            "Ġii": 3189,
            "Ġspeed": 3190,
            "Ġemb": 3191,
            "Ġthreat": 3192,
            "Ġagree": 3193,
            "Ġreturned": 3194,
            "Ġeuropean": 3195,
            "hod": 3196,
            "Ġcoast": 3197,
            "Ġdecl": 3198,
            "Ġcontact": 3199,
            "cul": 3200,
            "Ġarms": 3201,
            "Ġblock": 3202,
            "Ġwatching": 3203,
            "Ġfrog": 3204,
            "Ġtwel": 3205,
            "Ġbor": 3206,
            "Ġinvestig": 3207,
            "Ġolymp": 3208,
            "oles": 3209,
            "Ġpictures": 3210,
            "Ġinterested": 3211,
            "Ġstood": 3212,
            "Ġba": 3213,
            "Ġweak": 3214,
            "Ġtal": 3215,
            "Ġeducation": 3216,
            "Ġbord": 3217,
            "istr": 3218,
            "Ġhappening": 3219,
            "Ġdevelopment": 3220,
            "Ġlucky": 3221,
            "Ġaye": 3222,
            "Ġsens": 3223,
            "hem": 3224,
            "Ġcalm": 3225,
            "Ġmachine": 3226,
            "Ġforest": 3227,
            "Ġut": 3228,
            "Ġenv": 3229,
            "Ġdefinite": 3230,
            "Ġacad": 3231,
            "Ġchristian": 3232,
            "oups": 3233,
            "Ġexe": 3234,
            "ners": 3235,
            "iction": 3236,
            "aine": 3237,
            "Ġhelped": 3238,
            "Ġhotel": 3239,
            "burg": 3240,
            "ĠÂ¶": 3241,
            "Ġchina": 3242,
            "-de": 3243,
            "ato": 3244,
            "Ġsize": 3245,
            "itude": 3246,
            "Ġmeaning": 3247,
            "iled": 3248,
            "Ġpublished": 3249,
            "Ġboat": 3250,
            "Ġproduced": 3251,
            "Ġfle": 3252,
            "Ġpray": 3253,
            "Ġreact": 3254,
            "Ġsearch": 3255,
            "Ġsouthern": 3256,
            "Ġkit": 3257,
            "inese": 3258,
            "astic": 3259,
            "Ġtherefore": 3260,
            "Ġmaterial": 3261,
            "Ġrub": 3262,
            "wor": 3263,
            "Ġdeg": 3264,
            "Ġterms": 3265,
            "ns": 3266,
            "Ġcharles": 3267,
            "Ġgentlemen": 3268,
            "Ġjoined": 3269,
            "ram": 3270,
            "vin": 3271,
            "Ġmarriage": 3272,
            "Ġfac": 3273,
            "Ġstarting": 3274,
            "Ġbath": 3275,
            "ises": 3276,
            "Ġ0": 3277,
            "Ġarr": 3278,
            "iling": 3279,
            "Ġchick": 3280,
            "Ġvirgin": 3281,
            "Ġfred": 3282,
            "lebr": 3283,
            "Ġlee": 3284,
            "istic": 3285,
            "Ġtrip": 3286,
            "kes": 3287,
            "Ġmoon": 3288,
            "Ġprime": 3289,
            "Ġforty": 3290,
            "Ġlower": 3291,
            "Ġchic": 3292,
            "set": 3293,
            "Ġluc": 3294,
            "Ġliter": 3295,
            "Ġdangerous": 3296,
            "Ġheaven": 3297,
            "Ġsimply": 3298,
            "Ġitalian": 3299,
            "Ġareas": 3300,
            "Ġsky": 3301,
            "Ġactress": 3302,
            "Ġbusy": 3303,
            "Ġthom": 3304,
            "Ġmessage": 3305,
            "Ġmedic": 3306,
            "Ġinj": 3307,
            "sp": 3308,
            "ura": 3309,
            "istan": 3310,
            "za": 3311,
            "Ġgroups": 3312,
            "Ġbitch": 3313,
            "Ġaustralia": 3314,
            "icle": 3315,
            "Ġmovement": 3316,
            "Ġelection": 3317,
            "Ġmountain": 3318,
            "Ġresearch": 3319,
            "Ġconside": 3320,
            "Ġprim": 3321,
            "Ġpu": 3322,
            "Ġrefer": 3323,
            "Ġconsidered": 3324,
            "Ġoffer": 3325,
            "resh": 3326,
            "Ġskin": 3327,
            "Ġdifference": 3328,
            "Ġterrible": 3329,
            "Ġmult": 3330,
            "Ġcelebr": 3331,
            "iced": 3332,
            "Ġbridge": 3333,
            "onel": 3334,
            "ga": 3335,
            "Ġ|": 3336,
            "Ġnumbers": 3337,
            "Ġbroken": 3338,
            "Ġswed": 3339,
            "ex": 3340,
            "Ġflat": 3341,
            "erson": 3342,
            "ville": 3343,
            "Ġtast": 3344,
            "ify": 3345,
            "Ġtired": 3346,
            "itution": 3347,
            "Ġfounded": 3348,
            "Ġfighting": 3349,
            "Ġnovel": 3350,
            "Ġattempt": 3351,
            "bour": 3352,
            "don": 3353,
            "Ġbraz": 3354,
            "Ġsac": 3355,
            "Ġjudge": 3356,
            "Ġremain": 3357,
            "Ġtemper": 3358,
            "Ġdetail": 3359,
            "Ġintell": 3360,
            "olic": 3361,
            "reng": 3362,
            "-r": 3363,
            "Ġspot": 3364,
            "Ġhmm": 3365,
            "Ġcontract": 3366,
            "Ġjoe": 3367,
            "Ġsongs": 3368,
            "Ġbottom": 3369,
            "Ġweird": 3370,
            "bing": 3371,
            "Ġimagine": 3372,
            "Ġfaith": 3373,
            "Ġprince": 3374,
            "Ġble": 3375,
            "Ġkore": 3376,
            "chen": 3377,
            "att": 3378,
            "Ġrussian": 3379,
            "Ġspend": 3380,
            "Ġsuit": 3381,
            "Ġchinese": 3382,
            "Ġwarm": 3383,
            "Ġcomed": 3384,
            "light": 3385,
            "Ġmostly": 3386,
            "yes": 3387,
            "Ġsour": 3388,
            "Ġuk": 3389,
            "Ġshowed": 3390,
            "Ġfranc": 3391,
            ".,": 3392,
            "Ġvarious": 3393,
            "hal": 3394,
            "Ġdetect": 3395,
            "Ġsight": 3396,
            "phone": 3397,
            "Ġlocated": 3398,
            "uced": 3399,
            "Ġchap": 3400,
            "Ġwashington": 3401,
            "Ġreach": 3402,
            "wise": 3403,
            "Ġepis": 3404,
            "Ġthinks": 3405,
            "van": 3406,
            "Ġsaint": 3407,
            "Ġtalked": 3408,
            "ror": 3409,
            "west": 3410,
            "lled": 3411,
            "Ġshare": 3412,
            "Ġtradition": 3413,
            "viet": 3414,
            "Ġpoints": 3415,
            "Ġtraining": 3416,
            "Ġdouble": 3417,
            "lling": 3418,
            "Ġsquare": 3419,
            "ÃŃ": 3420,
            "Ġearlier": 3421,
            "Ġnote": 3422,
            "Ġrule": 3423,
            "Ġbrazil": 3424,
            "Ġcentre": 3425,
            "Ġvictim": 3426,
            "Ġwake": 3427,
            "Ġstories": 3428,
            "tend": 3429,
            "Ġgarden": 3430,
            "Ġlouis": 3431,
            "Ġsoldiers": 3432,
            "Ġought": 3433,
            "Ġrecords": 3434,
            "Ġcorrect": 3435,
            "Ġfemale": 3436,
            "Ġwinter": 3437,
            "illy": 3438,
            "Ġride": 3439,
            "Ġfeat": 3440,
            "Ġoppos": 3441,
            "nie": 3442,
            "Ġclosed": 3443,
            "Ġadmin": 3444,
            "Ġdanc": 3445,
            "Ġstreng": 3446,
            "ators": 3447,
            "Ġspread": 3448,
            "Ġprinc": 3449,
            "Ġflight": 3450,
            "Ġdivision": 3451,
            "Ġoce": 3452,
            "Ġfeed": 3453,
            "Ġcapt": 3454,
            "Ġprice": 3455,
            "Ġmedical": 3456,
            "Ġenc": 3457,
            "Ġanimal": 3458,
            "Ġspeaking": 3459,
            "Ġmanage": 3460,
            "Ġtrees": 3461,
            "mar": 3462,
            "Ġsecretary": 3463,
            "Ġended": 3464,
            "ĠâĻ": 3465,
            "Ġlying": 3466,
            "Ġbast": 3467,
            "Ġbuck": 3468,
            "hest": 3469,
            "Ġenemy": 3470,
            "Ġcommittee": 3471,
            "play": 3472,
            "Ġsettle": 3473,
            "Ġcath": 3474,
            "ria": 3475,
            "Ġtwelve": 3476,
            "hi": 3477,
            "-g": 3478,
            "Ġamb": 3479,
            "Ġbon": 3480,
            "Ġbay": 3481,
            "Ġbomb": 3482,
            "Ġworried": 3483,
            "oid": 3484,
            "Ġbey": 3485,
            "Ġcustom": 3486,
            "ita": 3487,
            "Ġpercent": 3488,
            "Ġscott": 3489,
            "Ġnecessary": 3490,
            "Ġsymp": 3491,
            "Ġrout": 3492,
            "Ġagent": 3493,
            "fl": 3494,
            "ounded": 3495,
            "Ġdecision": 3496,
            "Ġcompl": 3497,
            "Ġimposs": 3498,
            "Ġputting": 3499,
            "pap": 3500,
            "Ġcanada": 3501,
            "Ġamazing": 3502,
            "Ġassist": 3503,
            "Ġspanish": 3504,
            "Ġwedding": 3505,
            "iar": 3506,
            "Ã³": 3507,
            "Ġimpro": 3508,
            "Ġmissing": 3509,
            "Ġneck": 3510,
            "iel": 3511,
            "Ġdun": 3512,
            "Ġfol": 3513,
            "ida": 3514,
            "Ġwil": 3515,
            "ests": 3516,
            "Ġrules": 3517,
            "Ġtrade": 3518,
            "ique": 3519,
            "Ġcongress": 3520,
            "Ġcow": 3521,
            "Ġformed": 3522,
            "ala": 3523,
            "Ġlines": 3524,
            "Ġopport": 3525,
            "Ġcancer": 3526,
            "Ġbelow": 3527,
            "face": 3528,
            "anch": 3529,
            "Ġdry": 3530,
            "Ġanywhere": 3531,
            "iron": 3532,
            "ledge": 3533,
            "Ġbeg": 3534,
            "Ġappre": 3535,
            "Ġmistake": 3536,
            "Ġmethod": 3537,
            "Ġopportun": 3538,
            "Ġspoke": 3539,
            "bon": 3540,
            "she": 3541,
            "ulous": 3542,
            "Ġbright": 3543,
            "Ġcrow": 3544,
            "Ġhuge": 3545,
            "Ġemer": 3546,
            "Ġtitle": 3547,
            "tered": 3548,
            "Ġstaff": 3549,
            "Ġdesp": 3550,
            "ĠâĢĺ": 3551,
            "Ġhide": 3552,
            "Ġrepe": 3553,
            "ength": 3554,
            "Ġcomfort": 3555,
            "Ġcases": 3556,
            "Ġdarling": 3557,
            "Ġregard": 3558,
            "Ġchicago": 3559,
            "Ġstore": 3560,
            "ipe": 3561,
            "-ha": 3562,
            "Ġappoint": 3563,
            "rel": 3564,
            "Ġitaly": 3565,
            "ien": 3566,
            "net": 3567,
            "Ġsoviet": 3568,
            "Ġscene": 3569,
            "Ġly": 3570,
            "Ġdrag": 3571,
            "Ġconvers": 3572,
            "Ġaccom": 3573,
            "Ġimpossible": 3574,
            "Ġsite": 3575,
            "Ġliked": 3576,
            "Ġaver": 3577,
            "stairs": 3578,
            "berg": 3579,
            "Ġdefinitely": 3580,
            "ini": 3581,
            "cus": 3582,
            "Ġcarol": 3583,
            "ribut": 3584,
            "Ġmanager": 3585,
            "-up": 3586,
            "asion": 3587,
            "Ġta": 3588,
            "Ġbang": 3589,
            "ental": 3590,
            "Ġperm": 3591,
            "Ġforces": 3592,
            "Ġload": 3593,
            "Ġafrica": 3594,
            "Ġprincip": 3595,
            "Ġstudents": 3596,
            "ushed": 3597,
            "Ġtrick": 3598,
            "Ġplanet": 3599,
            "Ġapart": 3600,
            "Ġsnow": 3601,
            "Ġolder": 3602,
            "Ġcrim": 3603,
            "Ġcart": 3604,
            "Ġlunch": 3605,
            "itted": 3606,
            "ips": 3607,
            "Ġstatistics": 3608,
            "Ġneither": 3609,
            "Ġattract": 3610,
            "Ġder": 3611,
            "Ġninet": 3612,
            "aves": 3613,
            "Ġelectric": 3614,
            "\"?": 3615,
            "Ġcolonel": 3616,
            "Ġund": 3617,
            "Ġideas": 3618,
            "ground": 3619,
            "Ġtall": 3620,
            "Ġhigher": 3621,
            "Ġdeter": 3622,
            "Ġfit": 3623,
            "Ġgal": 3624,
            "ented": 3625,
            "Ġspring": 3626,
            "Ġvall": 3627,
            "esty": 3628,
            "Ġwriter": 3629,
            "wr": 3630,
            "Ġgall": 3631,
            "atives": 3632,
            "reen": 3633,
            "Ġlots": 3634,
            "Ġmodel": 3635,
            "dam": 3636,
            "Ġchanges": 3637,
            "Ġadded": 3638,
            "Ġliber": 3639,
            "va": 3640,
            "Ġregular": 3641,
            "Ġtwice": 3642,
            "Ġempire": 3643,
            "Ġbelieved": 3644,
            "su": 3645,
            "Ġpath": 3646,
            "cast": 3647,
            "just": 3648,
            "Ġdisease": 3649,
            "Ġaunt": 3650,
            "Ġbrand": 3651,
            "Ġspl": 3652,
            "Ġcharlie": 3653,
            "Ġraised": 3654,
            "usion": 3655,
            "Ġstruct": 3656,
            "Ġtheory": 3657,
            "Ġbeyond": 3658,
            "Ġiron": 3659,
            "Ġlegs": 3660,
            "Ġaddress": 3661,
            "lands": 3662,
            "Ġapparent": 3663,
            "Ġlawyer": 3664,
            "Ġcalls": 3665,
            "rer": 3666,
            "Ġwalking": 3667,
            "Ġdemand": 3668,
            "Ġ&": 3669,
            "oted": 3670,
            "Ġach": 3671,
            "Ġrevolution": 3672,
            "Ġmuse": 3673,
            "Ġtex": 3674,
            "Ġdisp": 3675,
            "Ġtotally": 3676,
            "Ġcontinue": 3677,
            "-year": 3678,
            "lor": 3679,
            "Ġstudio": 3680,
            "Ġservices": 3681,
            "Ġprint": 3682,
            "Ġeastern": 3683,
            "Ġversion": 3684,
            "Ġoffe": 3685,
            "Ġfresh": 3686,
            "Ġseriously": 3687,
            "aly": 3688,
            "ipped": 3689,
            "sey": 3690,
            "Ġcit": 3691,
            "Ġstyle": 3692,
            "Ġsant": 3693,
            "hold": 3694,
            "ca": 3695,
            "rupt": 3696,
            "bl": 3697,
            "Ġgrew": 3698,
            "Ġforeign": 3699,
            "Ġimmediately": 3700,
            "Ġocean": 3701,
            "Ġsurprise": 3702,
            "bel": 3703,
            "Ġfarm": 3704,
            "ential": 3705,
            "Ġcas": 3706,
            "Ġros": 3707,
            "ari": 3708,
            "pping": 3709,
            "Ġpil": 3710,
            "Ġparli": 3711,
            "Ġq": 3712,
            "Ġpressure": 3713,
            "ris": 3714,
            "Ġaffect": 3715,
            "Ġpound": 3716,
            "aret": 3717,
            "Ġmale": 3718,
            "Ġcorner": 3719,
            "Ġstock": 3720,
            "fact": 3721,
            "ams": 3722,
            "Ã¤": 3723,
            "Ġholy": 3724,
            "aking": 3725,
            "-st": 3726,
            "Ġwitness": 3727,
            "Ġsaved": 3728,
            "Ġreve": 3729,
            "ba": 3730,
            "ech": 3731,
            "Ġkilling": 3732,
            "Ġpolicy": 3733,
            "Ġavail": 3734,
            "Ġdiscovered": 3735,
            "ban": 3736,
            "Ġpage": 3737,
            "Ġreading": 3738,
            "this": 3739,
            "Ġnar": 3740,
            "Ġschools": 3741,
            "Ġweight": 3742,
            "Ġgrant": 3743,
            "Ġenter": 3744,
            "Ġcred": 3745,
            "yl": 3746,
            "Ġparliament": 3747,
            "Ġgro": 3748,
            "ession": 3749,
            "Ġsmart": 3750,
            "jo": 3751,
            "Ġevil": 3752,
            "Ġsunday": 3753,
            "ker": 3754,
            "Ġangry": 3755,
            "Ġslight": 3756,
            "Ġfourth": 3757,
            "Ġmartin": 3758,
            "Ġwis": 3759,
            "Ġlift": 3760,
            "Ġmission": 3761,
            "Ġblind": 3762,
            "uh": 3763,
            "wa": 3764,
            "ulations": 3765,
            "Ġpoet": 3766,
            "Ġlikely": 3767,
            "Ġconstr": 3768,
            "Ġenviron": 3769,
            "now": 3770,
            "Ġdeveloped": 3771,
            "Ġrange": 3772,
            "ills": 3773,
            "Ġforgive": 3774,
            "Ġdick": 3775,
            "Ġannounced": 3776,
            "ological": 3777,
            "Ġproud": 3778,
            "Ġchairman": 3779,
            "Ġswim": 3780,
            "ĠÃ": 3781,
            "Ġjun": 3782,
            "Ġven": 3783,
            "known": 3784,
            "!âĢĿ": 3785,
            "Ġrod": 3786,
            "Ġcarried": 3787,
            "Ġplane": 3788,
            "Ġarrived": 3789,
            "iant": 3790,
            "Ġyellow": 3791,
            "Ġswear": 3792,
            "Ġoil": 3793,
            "rom": 3794,
            "Ġstan": 3795,
            "ification": 3796,
            "rib": 3797,
            "Ġgreater": 3798,
            "Ġagreed": 3799,
            "Ġcars": 3800,
            "Ġholding": 3801,
            "Ġsuccessful": 3802,
            "Ġmayor": 3803,
            "oof": 3804,
            "Ġnic": 3805,
            "aries": 3806,
            "Ġyo": 3807,
            "Ġkar": 3808,
            "Ġmike": 3809,
            "Ġletters": 3810,
            "Ġcities": 3811,
            "Ġvictor": 3812,
            "Ġlearned": 3813,
            "'.": 3814,
            "eg": 3815,
            "Ġnewspap": 3816,
            "Ġmuseum": 3817,
            "Ġdriving": 3818,
            "Ġappreci": 3819,
            "Ġmagaz": 3820,
            "ees": 3821,
            "Ġawards": 3822,
            "Ġjose": 3823,
            "Ġprin": 3824,
            "Ġcontinued": 3825,
            "ette": 3826,
            "Ġescape": 3827,
            "Ġrelax": 3828,
            "Ġtext": 3829,
            "Ġforever": 3830,
            "Ġincluded": 3831,
            "Ġpurpose": 3832,
            "Ġjoy": 3833,
            "Ġjen": 3834,
            "Ġmont": 3835,
            "Ġadministr": 3836,
            "Ġmemory": 3837,
            "Ġwol": 3838,
            "Ġpleasure": 3839,
            "Ġstrength": 3840,
            "under": 3841,
            "Ġgay": 3842,
            "vert": 3843,
            "Ġsigned": 3844,
            "Ġwearing": 3845,
            "ses": 3846,
            "Ġlength": 3847,
            "vey": 3848,
            "Ġextreme": 3849,
            "Ġcolour": 3850,
            "Ġnation": 3851,
            "Ġgreatest": 3852,
            "Ġhandle": 3853,
            "Ġleaves": 3854,
            "ĠâĻ«": 3855,
            "Ġdude": 3856,
            "Ġcovered": 3857,
            "Ġsmile": 3858,
            "uten": 3859,
            "ients": 3860,
            "Ġlibr": 3861,
            "ension": 3862,
            "lle": 3863,
            "Ġdrunk": 3864,
            "reg": 3865,
            "Ġaverage": 3866,
            "Ġstudied": 3867,
            "ste": 3868,
            "Ġcopy": 3869,
            "enced": 3870,
            "Ġplat": 3871,
            "Ġsher": 3872,
            "Ġbac": 3873,
            "Ġoccur": 3874,
            "min": 3875,
            "zen": 3876,
            "Ġbother": 3877,
            "Ġflor": 3878,
            "Ġassociation": 3879,
            "Ġvote": 3880,
            "Ġninety": 3881,
            "Ġthomas": 3882,
            "Ġthus": 3883,
            "Ġfant": 3884,
            "Ġshown": 3885,
            "Ġweather": 3886,
            "Ġbod": 3887,
            "Ġdare": 3888,
            "Ġpig": 3889,
            "Ġwhis": 3890,
            "rey": 3891,
            "oved": 3892,
            "Ġsuspect": 3893,
            "Ġcant": 3894,
            "Ġfreed": 3895,
            "Ġaddition": 3896,
            "Ġheat": 3897,
            "Ġexcell": 3898,
            "ero": 3899,
            "clock": 3900,
            "Ġeffort": 3901,
            "Ġmissed": 3902,
            "Ġnotice": 3903,
            "Ġknowledge": 3904,
            "Ġacting": 3905,
            "house": 3906,
            "Ġeasily": 3907,
            "Ġmate": 3908,
            "Ġspok": 3909,
            "anda": 3910,
            "Ġfederal": 3911,
            "Ġtells": 3912,
            "Ġprize": 3913,
            "Ġpred": 3914,
            "Ġevents": 3915,
            "aign": 3916,
            "Ġcrew": 3917,
            "Ġhadn": 3918,
            "Ġformula": 3919,
            "Ġbrothers": 3920,
            "Ġrelease": 3921,
            "Ġfund": 3922,
            "Ġenvironment": 3923,
            "Ġartist": 3924,
            "Ġwalked": 3925,
            "Ġsports": 3926,
            "Ġslowly": 3927,
            "Ġrisk": 3928,
            "asc": 3929,
            "'am": 3930,
            "Ġelected": 3931,
            "osop": 3932,
            "Ġavailable": 3933,
            "Ġsmith": 3934,
            "Ġopin": 3935,
            "Ġcondition": 3936,
            "iles": 3937,
            "Ġotherwise": 3938,
            "Ġmilk": 3939,
            "Ġess": 3940,
            "Ġspain": 3941,
            "Ġpatient": 3942,
            "Ġorders": 3943,
            "...?": 3944,
            "night": 3945,
            "Ġque": 3946,
            "Ġinno": 3947,
            "bi": 3948,
            "pa": 3949,
            "oned": 3950,
            "Ġplans": 3951,
            "atory": 3952,
            "ja": 3953,
            "Ġsin": 3954,
            "Ġyouth": 3955,
            "Ġjustice": 3956,
            "aps": 3957,
            "Ġnineteen": 3958,
            "Ġcode": 3959,
            "uments": 3960,
            "cra": 3961,
            "Ġfest": 3962,
            "Ġhouses": 3963,
            "lected": 3964,
            "Ġeating": 3965,
            "Ġbigger": 3966,
            "Ġacademy": 3967,
            "Ġtypes": 3968,
            "Ġhors": 3969,
            "Ġmexico": 3970,
            "Ġreview": 3971,
            "Ġplayers": 3972,
            "Ġmajesty": 3973,
            "Ġatl": 3974,
            "Ġdeb": 3975,
            "Ġvalue": 3976,
            "Ġadult": 3977,
            "there": 3978,
            "wered": 3979,
            "Ġchoose": 3980,
            "Ġlaws": 3981,
            "ckey": 3982,
            "Ġtexas": 3983,
            "gl": 3984,
            "Ġairport": 3985,
            "Ġpicked": 3986,
            "Ġcoach": 3987,
            "Ġjournal": 3988,
            "Ġmut": 3989,
            "Ġemper": 3990,
            "Ġcampaign": 3991,
            "Ġtun": 3992,
            "Ġremind": 3993,
            "ively": 3994,
            "Ã¨": 3995,
            "Ġrome": 3996,
            "ibility": 3997,
            "ander": 3998,
            "Ġsilver": 3999,
            "Ġsake": 4000,
            "-i": 4001,
            "Ġwine": 4002,
            "Ġmyster": 4003,
            "Ġscrew": 4004,
            "Ġseconds": 4005,
            "Ġbound": 4006,
            "Ġharry": 4007,
            "Ġlog": 4008,
            "ropical": 4009,
            "ket": 4010,
            "Ġuses": 4011,
            "Ġterrit": 4012,
            "Ġbesides": 4013,
            "Ġclearly": 4014,
            "ables": 4015,
            "Ġpositive": 4016,
            "Ġna": 4017,
            "Ġgoodbye": 4018,
            "Ġcompos": 4019,
            "rem": 4020,
            "Ġash": 4021,
            "Ġsteal": 4022,
            "ples": 4023,
            "lim": 4024,
            "Ġkim": 4025,
            "Ġdom": 4026,
            "Ġdrama": 4027,
            "Ġrat": 4028,
            "Ġentertain": 4029,
            "Ġpractice": 4030,
            "Ġdistance": 4031,
            "ashion": 4032,
            "Ġretired": 4033,
            "Ġcommunic": 4034,
            "arily": 4035,
            "Ġduty": 4036,
            "Ġgang": 4037,
            "Ġissue": 4038,
            "eless": 4039,
            "Ġsatur": 4040,
            "Ġteach": 4041,
            "gypt": 4042,
            "Ġkitchen": 4043,
            "ott": 4044,
            "Ġgoal": 4045,
            "Ġsaf": 4046,
            "Ġaccess": 4047,
            "Ġexecut": 4048,
            "aked": 4049,
            "Ġpainting": 4050,
            "Ġloss": 4051,
            "using": 4052,
            "Ġtransport": 4053,
            "Ġshout": 4054,
            "Ġbless": 4055,
            "Ġcarl": 4056,
            "Ġindividual": 4057,
            "Ġsword": 4058,
            "Ġphilosop": 4059,
            "Ġsixty": 4060,
            "antly": 4061,
            "Ġvac": 4062,
            "itation": 4063,
            "Ġmountains": 4064,
            "Ġislands": 4065,
            "Ġsurr": 4066,
            "Ġrealize": 4067,
            "Ġprove": 4068,
            "Ġham": 4069,
            "Ġmagic": 4070,
            "Ġshad": 4071,
            "Ġkm": 4072,
            "-a": 4073,
            "ona": 4074,
            "Ġopportunity": 4075,
            "ano": 4076,
            "Ġtight": 4077,
            "Ġos": 4078,
            "Ġarab": 4079,
            "Ġpieces": 4080,
            "Ġplus": 4081,
            "ilities": 4082,
            "Ġcommission": 4083,
            "ening": 4084,
            "Ġshr": 4085,
            "back": 4086,
            "gas": 4087,
            "Ġcash": 4088,
            "Ġhighest": 4089,
            "Ġqual": 4090,
            "Ġry": 4091,
            "itar": 4092,
            "Ġjean": 4093,
            "Ġquarter": 4094,
            "time": 4095,
            "Ġbiggest": 4096,
            "Ġteams": 4097,
            "Ġgrab": 4098,
            "Ġegypt": 4099,
            "Ġanswered": 4100,
            "Ġbeauty": 4101,
            "--\"": 4102,
            "Ġmetal": 4103,
            "Ġpush": 4104,
            "Ġwindows": 4105,
            "Ġlink": 4106,
            "Ġodd": 4107,
            "Ġemot": 4108,
            "Ġpra": 4109,
            "Ġtheat": 4110,
            "ado": 4111,
            "die": 4112,
            "kins": 4113,
            "Ġchannel": 4114,
            "Ġstarts": 4115,
            "Ġpard": 4116,
            "Ġrussia": 4117,
            "Ġprem": 4118,
            "Ġoccup": 4119,
            "Ġincludes": 4120,
            "eds": 4121,
            "Ġwaste": 4122,
            "Ġholiday": 4123,
            "Ġtaught": 4124,
            "Ġinterview": 4125,
            "Ġjane": 4126,
            "Ġdata": 4127,
            "Ġdropped": 4128,
            "Ġdogs": 4129,
            "Ġkidding": 4130,
            "Ġbirds": 4131,
            "Ġdying": 4132,
            "utenant": 4133,
            "Ġmort": 4134,
            "Ġprec": 4135,
            "Ġga": 4136,
            "Ġpowerful": 4137,
            "Ġconcerned": 4138,
            "Ġtruck": 4139,
            "Ġgreek": 4140,
            "Ġachie": 4141,
            "aker": 4142,
            "Ġeventually": 4143,
            "Ġtarget": 4144,
            "pan": 4145,
            "Ġhid": 4146,
            "Ġalt": 4147,
            "Ġlikes": 4148,
            "Ġtoward": 4149,
            "Ġvalley": 4150,
            "Ġfox": 4151,
            "Ġcried": 4152,
            "ays": 4153,
            "ining": 4154,
            "Ġdecide": 4155,
            "Ġapparently": 4156,
            "imate": 4157,
            "Ġhaw": 4158,
            "fast": 4159,
            "Ġrot": 4160,
            "Ġplants": 4161,
            "Ġcrack": 4162,
            "Ġproduction": 4163,
            "Ġsurface": 4164,
            "Ġcub": 4165,
            "Ġfrancis": 4166,
            "Ġmere": 4167,
            "Ġscream": 4168,
            "Ġdirection": 4169,
            "sa": 4170,
            "Ġcreate": 4171,
            "Ġrough": 4172,
            "Ġcitiz": 4173,
            "Ġscr": 4174,
            "Ġbrief": 4175,
            "Ġmentioned": 4176,
            "'clock": 4177,
            "erved": 4178,
            "Ġhorses": 4179,
            "Ġcheap": 4180,
            "Ġplanning": 4181,
            "Ġinn": 4182,
            "Ġflowers": 4183,
            "Ġsaturday": 4184,
            "Ġproperty": 4185,
            "Ġscreen": 4186,
            "Ġreasons": 4187,
            "igr": 4188,
            "Ġsuck": 4189,
            "Ġspecific": 4190,
            "Ġtape": 4191,
            "Ġwrest": 4192,
            "Ġasse": 4193,
            "ann": 4194,
            "hol": 4195,
            "Ġfal": 4196,
            "cla": 4197,
            "Ġspr": 4198,
            "Ġcurrently": 4199,
            "Ġjail": 4200,
            "Ġnose": 4201,
            "Ġsett": 4202,
            "Ġourselves": 4203,
            "Ġshoes": 4204,
            "Ġcoo": 4205,
            "lder": 4206,
            "Ġshock": 4207,
            "Ġtony": 4208,
            "Ġrare": 4209,
            "ability": 4210,
            "Ġspeech": 4211,
            "Ġofficers": 4212,
            "Ġsatis": 4213,
            "Ġlieutenant": 4214,
            "Ġforced": 4215,
            "Ġserge": 4216,
            "Ġintellig": 4217,
            "Ġhockey": 4218,
            "Ġcrowd": 4219,
            "fit": 4220,
            "ores": 4221,
            "Ġstuck": 4222,
            "Ġcatholic": 4223,
            "Ġpossibly": 4224,
            "cket": 4225,
            "Ġdollars": 4226,
            "Ġbeach": 4227,
            "asant": 4228,
            "Ġeighty": 4229,
            "Ġboo": 4230,
            "Ġmotor": 4231,
            "Ġharm": 4232,
            "Ġprogress": 4233,
            "isions": 4234,
            "pir": 4235,
            "iverse": 4236,
            "Ġculture": 4237,
            "Ġfavour": 4238,
            "ji": 4239,
            "Ġmars": 4240,
            "Ġworst": 4241,
            "Ġfriday": 4242,
            "Ġpian": 4243,
            "Ġscar": 4244,
            "Ġlegal": 4245,
            "Ġauthority": 4246,
            "Ġnative": 4247,
            "hib": 4248,
            "host": 4249,
            "Ġjos": 4250,
            "Ġlanguages": 4251,
            "Ġmeat": 4252,
            "Ġkeeping": 4253,
            "Ġemperor": 4254,
            "Ġupset": 4255,
            "Ġchallen": 4256,
            "iation": 4257,
            "Ġsection": 4258,
            "Ġhole": 4259,
            "Ġbreath": 4260,
            "Ġinit": 4261,
            "see": 4262,
            "Ġrate": 4263,
            "Ġdemocratic": 4264,
            "itute": 4265,
            "Ġjeff": 4266,
            "Ġcongr": 4267,
            "Ġdeterm": 4268,
            "Ġles": 4269,
            "rael": 4270,
            "Ġresponsible": 4271,
            "Ġ{": 4272,
            "Ġsmoke": 4273,
            "oe": 4274,
            "Ġpartner": 4275,
            "Ġign": 4276,
            "Ġcomedy": 4277,
            "icide": 4278,
            "apt": 4279,
            "road": 4280,
            "Ġchat": 4281,
            "tended": 4282,
            "Ġthroughout": 4283,
            "itzer": 4284,
            "Ġpapers": 4285,
            "Ġnetwork": 4286,
            "Ġfu": 4287,
            "Ġafrican": 4288,
            "Ġfeels": 4289,
            "Ġforms": 4290,
            "Ġindustry": 4291,
            "Ġcompetition": 4292,
            "Ġdestroyed": 4293,
            "lam": 4294,
            "Ġtransl": 4295,
            "Ġleading": 4296,
            "Ġestablished": 4297,
            "isters": 4298,
            "Ġflying": 4299,
            "Ġstrugg": 4300,
            "Ġgrace": 4301,
            "Ġdivor": 4302,
            "Ġopening": 4303,
            "Ġjam": 4304,
            "Ġspoken": 4305,
            "Ġhumans": 4306,
            "fortun": 4307,
            "Ġparticularly": 4308,
            "Ġram": 4309,
            "Ġidiot": 4310,
            "Ġpy": 4311,
            "Ġpin": 4312,
            "Ġcanadian": 4313,
            "Ġsmaller": 4314,
            "Ġgolden": 4315,
            "Ġdamage": 4316,
            "Ġmedia": 4317,
            "Ġfamilies": 4318,
            "Ġaware": 4319,
            "ota": 4320,
            "Ġapartment": 4321,
            "ef": 4322,
            "Ġguns": 4323,
            "Ġbuddy": 4324,
            "ask": 4325,
            "Ġapolog": 4326,
            "ada": 4327,
            "Ġfifteen": 4328,
            "Ġfinger": 4329,
            "ios": 4330,
            "Ġdebut": 4331,
            "ucle": 4332,
            "Ġrow": 4333,
            "Ġhardly": 4334,
            "Ġturns": 4335,
            "Ġgirlf": 4336,
            "Ġacqu": 4337,
            "Ġflag": 4338,
            "Ġmainly": 4339,
            "Ġpromised": 4340,
            "Ġunit": 4341,
            "Ġbecomes": 4342,
            "Ġloves": 4343,
            "Ġawful": 4344,
            "Ġdutch": 4345,
            "Ġresults": 4346,
            "Ġdrugs": 4347,
            "friend": 4348,
            "ashed": 4349,
            "Ġlistening": 4350,
            "Ġprepared": 4351,
            "aled": 4352,
            "Ġlies": 4353,
            "craft": 4354,
            "Ġcabin": 4355,
            "Ġreligion": 4356,
            "ems": 4357,
            "uly": 4358,
            "Ġlabor": 4359,
            "lend": 4360,
            "vere": 4361,
            "Ġcastle": 4362,
            "Ġempty": 4363,
            "Ġpure": 4364,
            "stood": 4365,
            "Ġsymb": 4366,
            "Ġconditions": 4367,
            "Ġsom": 4368,
            "Ġconfir": 4369,
            "aded": 4370,
            "with": 4371,
            "Ġcamera": 4372,
            "ware": 4373,
            "Ġdirty": 4374,
            "Ġgift": 4375,
            "Ġrank": 4376,
            "Ġfreedom": 4377,
            "Ġplaced": 4378,
            "Ġamericans": 4379,
            "Ġyep": 4380,
            "Ġcharacters": 4381,
            "bles": 4382,
            "ously": 4383,
            "mmy": 4384,
            "Ġvirginia": 4385,
            "Ġtaste": 4386,
            "father": 4387,
            "Ġrecorded": 4388,
            "Ġnerv": 4389,
            "Ġjoke": 4390,
            "nis": 4391,
            "arm": 4392,
            "Ġdoct": 4393,
            "iana": 4394,
            "aching": 4395,
            "Ġchemical": 4396,
            "Ġlights": 4397,
            "Ġassemb": 4398,
            "isted": 4399,
            "Ġsilence": 4400,
            "Ġsystems": 4401,
            "Ġ(;": 4402,
            "Ġfan": 4403,
            "Ġsinging": 4404,
            "Ġscotland": 4405,
            "Ġpak": 4406,
            "sing": 4407,
            "asing": 4408,
            "Ġisrael": 4409,
            "Ġconserv": 4410,
            "Ġcommander": 4411,
            "Ġmedal": 4412,
            "Ġshape": 4413,
            "Ġmi": 4414,
            "Ġeverywhere": 4415,
            "Ġconversation": 4416,
            "Ġweeke": 4417,
            "ales": 4418,
            "Ġwilling": 4419,
            "Ġhungry": 4420,
            "Ġquit": 4421,
            "ols": 4422,
            "they": 4423,
            "Ġepisode": 4424,
            "icles": 4425,
            "ffic": 4426,
            "Ġoperation": 4427,
            "Ġonto": 4428,
            "Ġindic": 4429,
            "Ġentered": 4430,
            "Ġcongrat": 4431,
            "Ġsubst": 4432,
            "Ġbastard": 4433,
            "Ġexpected": 4434,
            "Ġserve": 4435,
            "Ġbritain": 4436,
            "Ġfired": 4437,
            "Ġmotion": 4438,
            "izing": 4439,
            "ule": 4440,
            "Ġruns": 4441,
            "Ġoriginally": 4442,
            "sequ": 4443,
            "Ġpardon": 4444,
            "Ġunfortun": 4445,
            "Ġcommer": 4446,
            "Ġcomplic": 4447,
            "Ġfeelings": 4448,
            "Ġbreakfast": 4449,
            "Ġgenerally": 4450,
            "Ġeggs": 4451,
            "Ġsurprised": 4452,
            "Ġghost": 4453,
            "Ġrestaur": 4454,
            "Ġcous": 4455,
            "Ġron": 4456,
            "heart": 4457,
            "Ġangeles": 4458,
            "Ġreligious": 4459,
            "Ġdreams": 4460,
            "Ġturning": 4461,
            "Ġgradu": 4462,
            "Ġkiller": 4463,
            "Ġgate": 4464,
            "augh": 4465,
            "Ġindependent": 4466,
            "Ġlibrary": 4467,
            "ulf": 4468,
            "Ġdemon": 4469,
            "ansas": 4470,
            "Ġorganization": 4471,
            "Ġgrowing": 4472,
            "Ġneighbor": 4473,
            "Ġmagazine": 4474,
            "tr": 4475,
            "Ġleaders": 4476,
            "ek": 4477,
            "Ġstudent": 4478,
            "Ġsleeping": 4479,
            "Ġweapons": 4480,
            "nam": 4481,
            "abeth": 4482,
            "Ġafford": 4483,
            "Ġnucle": 4484,
            "Ġknowing": 4485,
            "Ġrecently": 4486,
            "Ġcloud": 4487,
            "anced": 4488,
            "Ġunc": 4489,
            "hered": 4490,
            "lla": 4491,
            "Ġinha": 4492,
            "Ġtan": 4493,
            "ques": 4494,
            "Ġmedicine": 4495,
            "over": 4496,
            "ox": 4497,
            "-day": 4498,
            "Ġopinion": 4499,
            "Ġteeth": 4500,
            "Ġdegree": 4501,
            "Ġbri": 4502,
            "Ġkil": 4503,
            "claim": 4504,
            "Ġhonour": 4505,
            "Ġphysical": 4506,
            "Ġbarb": 4507,
            "Ġrang": 4508,
            "Ġeasier": 4509,
            "Ġprefer": 4510,
            "Ġtail": 4511,
            "Ġperformance": 4512,
            "Ġthick": 4513,
            "uries": 4514,
            "Ġappl": 4515,
            "Ġinspect": 4516,
            "Ġsafety": 4517,
            "Ġpregn": 4518,
            "Ġcorpor": 4519,
            "Ġaustralian": 4520,
            "bered": 4521,
            "Ġthro": 4522,
            "Ġdriver": 4523,
            "Ġfro": 4524,
            "Ġthir": 4525,
            "Ġtha": 4526,
            "Ġsup": 4527,
            "Ġconstitution": 4528,
            "Ġmultip": 4529,
            "Ġconduct": 4530,
            "Ġlack": 4531,
            "Ġrelated": 4532,
            "Ġraise": 4533,
            "Ġfrequ": 4534,
            "bes": 4535,
            "Ġveh": 4536,
            "rial": 4537,
            "Ġheads": 4538,
            "Ġbrill": 4539,
            "Ġpalace": 4540,
            "Ġthousands": 4541,
            "Ġtropical": 4542,
            "Ġlaughing": 4543,
            "Ġbecoming": 4544,
            "Ġwet": 4545,
            "Ġwheel": 4546,
            "Ġsharp": 4547,
            "Ġborder": 4548,
            "Ġtough": 4549,
            "rid": 4550,
            "Ġcircum": 4551,
            "Ġguil": 4552,
            "Ġfirm": 4553,
            "Ġnomin": 4554,
            "Ġscientists": 4555,
            "Ġprincess": 4556,
            "Ġupper": 4557,
            "why": 4558,
            "Ġdor": 4559,
            "Ġjac": 4560,
            "Ġcritic": 4561,
            "Ġfought": 4562,
            "Ġgirlfriend": 4563,
            "ez": 4564,
            "Ġkent": 4565,
            "Ġsugar": 4566,
            "Ġuniverse": 4567,
            "gers": 4568,
            "Ġlarger": 4569,
            "Ġedge": 4570,
            "Ġstandard": 4571,
            "Ġtrial": 4572,
            "Ġlosing": 4573,
            "Ġroof": 4574,
            "Ġstro": 4575,
            "istry": 4576,
            "Ġward": 4577,
            "Ġminor": 4578,
            "Ġfashion": 4579,
            "ube": 4580,
            "tery": 4581,
            ".c": 4582,
            "Ġchris": 4583,
            "Ġyounger": 4584,
            "Ġadvent": 4585,
            "Ġgy": 4586,
            "Ġsav": 4587,
            "Ġfunction": 4588,
            "Ġjackson": 4589,
            "Ġbodies": 4590,
            "Ġmatters": 4591,
            "Ġcompanies": 4592,
            "aming": 4593,
            "Ġordered": 4594,
            "Ġnav": 4595,
            "Ġseparate": 4596,
            "Ġmicro": 4597,
            "Ġsoldier": 4598,
            "Ġbare": 4599,
            "ateg": 4600,
            "Ġjobs": 4601,
            "Ġot": 4602,
            "Ġarth": 4603,
            "Ġfailed": 4604,
            "Ġdesigned": 4605,
            "Ġusual": 4606,
            "...\"": 4607,
            "Ġlind": 4608,
            "Ġedward": 4609,
            "Ġgor": 4610,
            "Ġburied": 4611,
            "Ġfilled": 4612,
            "rick": 4613,
            "Ġpit": 4614,
            "Ġrent": 4615,
            "iety": 4616,
            "Ġlatin": 4617,
            "Ġdevil": 4618,
            "Ġinfluence": 4619,
            "Ġcandid": 4620,
            "Ġire": 4621,
            "Ġpoison": 4622,
            "Ġresist": 4623,
            "Ġsweden": 4624,
            "aches": 4625,
            "hin": 4626,
            "Ġmmm": 4627,
            "Ġpulled": 4628,
            "Ġactual": 4629,
            "Ġsteve": 4630,
            "Ġemerg": 4631,
            "-se": 4632,
            "Ġexpress": 4633,
            "Ġgrown": 4634,
            "Ġhind": 4635,
            "ĠÌģs": 4636,
            "Ġfestival": 4637,
            "mond": 4638,
            "alled": 4639,
            "asty": 4640,
            "Ġguilty": 4641,
            "Ġbread": 4642,
            "Ġperformed": 4643,
            "ost": 4644,
            "Ġnations": 4645,
            "Ġlaid": 4646,
            "Ġchicken": 4647,
            "Ġoffered": 4648,
            "Ġloud": 4649,
            "Ġcig": 4650,
            "Ġdomin": 4651,
            "Ġdescribed": 4652,
            "Ġplain": 4653,
            "Ġdim": 4654,
            "Ġsource": 4655,
            "Ġfinan": 4656,
            "ighs": 4657,
            "Ġsarah": 4658,
            "zo": 4659,
            "ti": 4660,
            "Ġvot": 4661,
            "orter": 4662,
            "Ġvice": 4663,
            "Ġexcellent": 4664,
            "-hmm": 4665,
            "da": 4666,
            "Ġtemple": 4667,
            "Ġcontain": 4668,
            "Ġstayed": 4669,
            "fection": 4670,
            "Ġhelping": 4671,
            "Ġmusical": 4672,
            "Ġterror": 4673,
            "Ġmechan": 4674,
            "Ġpier": 4675,
            "Ġsides": 4676,
            "Ġsurely": 4677,
            "Ġnervous": 4678,
            "Ġbuildings": 4679,
            "ola": 4680,
            "cel": 4681,
            "quar": 4682,
            "isse": 4683,
            "Ġgrass": 4684,
            "mend": 4685,
            "Ġlabour": 4686,
            "Ġsimon": 4687,
            "Ġanti": 4688,
            "Ġweapon": 4689,
            "odes": 4690,
            "kin": 4691,
            "Ġadmit": 4692,
            "itan": 4693,
            "Ġreck": 4694,
            "Ġrequest": 4695,
            "Ġunderstood": 4696,
            "Ġstaying": 4697,
            "Ġtap": 4698,
            "isher": 4699,
            "Ġsem": 4700,
            "Ġadvice": 4701,
            "Ġarchit": 4702,
            "Ġbul": 4703,
            "Ġeliz": 4704,
            "Ġhorri": 4705,
            "Ġath": 4706,
            "Ġshooting": 4707,
            "Ġpair": 4708,
            "tering": 4709,
            "ias": 4710,
            "pet": 4711,
            "Ġsilly": 4712,
            "Ġsexual": 4713,
            "inois": 4714,
            "Ġnoticed": 4715,
            "Ġtower": 4716,
            "Ġthor": 4717,
            "ador": 4718,
            "Ġarts": 4719,
            "Ġireland": 4720,
            "Ġblame": 4721,
            "bell": 4722,
            "Ġdrinking": 4723,
            "Ġshowing": 4724,
            "Ġflorida": 4725,
            "Ġreplaced": 4726,
            "Ġcloser": 4727,
            "Ġtong": 4728,
            "Ġcoat": 4729,
            "Ġobl": 4730,
            ",i": 4731,
            "Ġoccasion": 4732,
            "jan": 4733,
            "Ġdivided": 4734,
            "Ġappreciate": 4735,
            "Ġterritory": 4736,
            "icient": 4737,
            "ira": 4738,
            "Ġkeeps": 4739,
            "Ġtroops": 4740,
            "Ġplenty": 4741,
            "Ġadvant": 4742,
            "itzerland": 4743,
            "Ġdiam": 4744,
            "Ġarchitect": 4745,
            "Ġdyn": 4746,
            "Ġupstairs": 4747,
            "Ġillinois": 4748,
            "Ġsab": 4749,
            "Ġfaster": 4750,
            "Ġpac": 4751,
            "Ġarrange": 4752,
            "pha": 4753,
            "aria": 4754,
            "Ġdefend": 4755,
            "Ġrailway": 4756,
            "Ġstructure": 4757,
            "who": 4758,
            "Ġarrested": 4759,
            "Ġswitzerland": 4760,
            "heast": 4761,
            "Ġkinds": 4762,
            "isa": 4763,
            "Ġrab": 4764,
            "cles": 4765,
            "Ġprovide": 4766,
            "Ġsplit": 4767,
            "Ġadop": 4768,
            "Ġhook": 4769,
            "ima": 4770,
            "Ġjimmy": 4771,
            "Ġfingers": 4772,
            "Ġsuc": 4773,
            "Ġeleven": 4774,
            "Ġjoseph": 4775,
            "ishop": 4776,
            "Ġangel": 4777,
            "Ġpenn": 4778,
            "bu": 4779,
            "Ġshame": 4780,
            "Ġsergeant": 4781,
            "rance": 4782,
            "igned": 4783,
            "Ġstrike": 4784,
            "Ġaha": 4785,
            "Ġduck": 4786,
            "Ġtechnology": 4787,
            "ributed": 4788,
            "Ġtend": 4789,
            "Ġremem": 4790,
            "Ġgeorg": 4791,
            "ux": 4792,
            "Ġpink": 4793,
            "phan": 4794,
            "Ġchuck": 4795,
            "Ġrand": 4796,
            "Ġcock": 4797,
            "Ġglo": 4798,
            "ali": 4799,
            "Ġreported": 4800,
            "mark": 4801,
            "Ġtelephone": 4802,
            "Ġnormally": 4803,
            "Ġhills": 4804,
            "Ġpad": 4805,
            "Ġcolon": 4806,
            "Ġselling": 4807,
            "Ġends": 4808,
            "Ġmap": 4809,
            "Ġridic": 4810,
            "illed": 4811,
            "Ġfright": 4812,
            "Ġquality": 4813,
            "Ġworkers": 4814,
            "Ġreality": 4815,
            "vo": 4816,
            "Ġtransfer": 4817,
            "Ġbringing": 4818,
            "Ġexchan": 4819,
            "Ġmam": 4820,
            "Ġfile": 4821,
            "oma": 4822,
            "Ġkat": 4823,
            "Ġwalls": 4824,
            "Ġbrilliant": 4825,
            "Ġthin": 4826,
            "Ġrise": 4827,
            "Ġcriminal": 4828,
            "'ii": 4829,
            "Ġequal": 4830,
            "Ġreven": 4831,
            "isl": 4832,
            "Ġsignific": 4833,
            "Ġfifth": 4834,
            "Ġtreatment": 4835,
            "Ġmob": 4836,
            "Ġdust": 4837,
            "Ġmonday": 4838,
            "Ġpaying": 4839,
            "Ġbasket": 4840,
            "Ġbid": 4841,
            "tles": 4842,
            "Ġroles": 4843,
            "Ġpowers": 4844,
            "Ġmanaged": 4845,
            "wers": 4846,
            "Ġtam": 4847,
            "americ": 4848,
            "rol": 4849,
            "Ġboyfriend": 4850,
            "Ġadmir": 4851,
            "Ġcrown": 4852,
            "Ġweekend": 4853,
            "Ġdrew": 4854,
            "urance": 4855,
            "ties": 4856,
            "Ġjourney": 4857,
            "Ġhug": 4858,
            "Ġbeer": 4859,
            "Ġcrying": 4860,
            "Ġanth": 4861,
            "Ġdirectly": 4862,
            "Ġopposite": 4863,
            "erc": 4864,
            "eration": 4865,
            "Ġnarr": 4866,
            "ushing": 4867,
            "Ġcontr": 4868,
            "Ġstreets": 4869,
            "ocol": 4870,
            "Ġhyd": 4871,
            "Ġpropos": 4872,
            "Ġted": 4873,
            "ppy": 4874,
            "Ġtraffic": 4875,
            "Ġdanny": 4876,
            "Ġdetective": 4877,
            "Ġmama": 4878,
            "Ġproducer": 4879,
            "Ġgoddam": 4880,
            "illa": 4881,
            "hire": 4882,
            "Ġlips": 4883,
            "Ġmeas": 4884,
            "Ġbottle": 4885,
            "Ġrum": 4886,
            "bre": 4887,
            "Ġproduce": 4888,
            "Ġbasically": 4889,
            "Ġfixed": 4890,
            "-old": 4891,
            "Ġapplic": 4892,
            "Ġincred": 4893,
            "ila": 4894,
            "Ġheight": 4895,
            "Ġremains": 4896,
            "Ġdocument": 4897,
            "Ġknife": 4898,
            "Ġshan": 4899,
            "ito": 4900,
            "ustr": 4901,
            "ko": 4902,
            "Ġsucceed": 4903,
            "Ġwha": 4904,
            "Ġconference": 4905,
            "Ġears": 4906,
            "Ġopera": 4907,
            "Ġfran": 4908,
            "Ġreplied": 4909,
            "Ġfinding": 4910,
            "Ġissues": 4911,
            "pic": 4912,
            "Ġsoph": 4913,
            "Ġprotest": 4914,
            "Ġkr": 4915,
            "iger": 4916,
            "Ġcomplex": 4917,
            "oured": 4918,
            "Ġscore": 4919,
            "Ġremark": 4920,
            "Ġwatched": 4921,
            "Ġresc": 4922,
            "Ġchampion": 4923,
            "Ġtemperature": 4924,
            "Ġopt": 4925,
            "leep": 4926,
            "Ġstream": 4927,
            "Ġthoughts": 4928,
            "Ġphotograph": 4929,
            "Ġautom": 4930,
            "Ġpakistan": 4931,
            "Ġmaria": 4932,
            "Ġmeasure": 4933,
            "Ġdelic": 4934,
            "Ġstret": 4935,
            "Ġgri": 4936,
            "Ġfruit": 4937,
            "win": 4938,
            "Ġchos": 4939,
            "Ġadam": 4940,
            "mit": 4941,
            "Ġcou": 4942,
            "Ġclimate": 4943,
            "Ġpriest": 4944,
            "Ġmagn": 4945,
            "Ġeconomic": 4946,
            "Ġfailure": 4947,
            "Ġforgotten": 4948,
            "Ġincrease": 4949,
            "Ġinnocent": 4950,
            "lyn": 4951,
            "imp": 4952,
            "Ġactive": 4953,
            "Ġflo": 4954,
            "Ġren": 4955,
            "Ġarthur": 4956,
            "Ġroger": 4957,
            "Ġflower": 4958,
            "Ġparticip": 4959,
            "Ġhorn": 4960,
            "Ġperfectly": 4961,
            ".a": 4962,
            "erves": 4963,
            "Ġlic": 4964,
            "Ġprotection": 4965,
            "Ġconcept": 4966,
            ",--": 4967,
            "stra": 4968,
            "Ġhurric": 4969,
            "Ġmatches": 4970,
            "Ġcauses": 4971,
            "Ã±": 4972,
            "Ġmixed": 4973,
            "Ġsmok": 4974,
            "Ġbutter": 4975,
            "Ġappears": 4976,
            "Ġgentleman": 4977,
            "Ġemergency": 4978,
            "Ġathlet": 4979,
            "Ġmarg": 4980,
            "rees": 4981,
            "Ġec": 4982,
            "Ġbranch": 4983,
            "Ġtiny": 4984,
            "Ġsail": 4985,
            "Ġstatement": 4986,
            "gery": 4987,
            "Ġleon": 4988,
            "Ġaz": 4989,
            "Ġcake": 4990,
            "Ġdelight": 4991,
            "Ġfeatures": 4992,
            "bc": 4993,
            "fied": 4994,
            "Ġwid": 4995,
            "Ġnewspaper": 4996,
            "Ġjon": 4997,
            "Ġclient": 4998,
            "Ġshh": 4999,
            "Ġaccepted": 5000,
            "Ġaim": 5001,
            "Ġpocket": 5002,
            "Ġnap": 5003,
            "Ġkorea": 5004,
            ".m": 5005,
            "writer": 5006,
            "Ġmanner": 5007,
            "any": 5008,
            "arian": 5009,
            "à¸": 5010,
            "Ġpiano": 5011,
            "Ġassembly": 5012,
            "Ġcousin": 5013,
            "Ġcircumst": 5014,
            "Ġsignal": 5015,
            "iences": 5016,
            "centr": 5017,
            "Ġteaching": 5018,
            "Ġgrey": 5019,
            "Ġfocus": 5020,
            "Ġnaz": 5021,
            "Ġsomehow": 5022,
            "Ġexpensive": 5023,
            "ault": 5024,
            "Ġtowns": 5025,
            "laugh": 5026,
            "Ġdancing": 5027,
            "Ġridiculous": 5028,
            "Î¿": 5029,
            "Ġnur": 5030,
            "hl": 5031,
            "Ġlocked": 5032,
            "Ġwhoo": 5033,
            "aging": 5034,
            "Ġrecom": 5035,
            "Ġremained": 5036,
            "Ġcream": 5037,
            "'?": 5038,
            "gs": 5039,
            "je": 5040,
            "Ġcrap": 5041,
            "Ġowe": 5042,
            "Ġeve": 5043,
            "Ġetc": 5044,
            "Ġroute": 5045,
            "Ġtyp": 5046,
            "Ġcredit": 5047,
            "Ġforth": 5048,
            "ni": 5049,
            "Ġcongratulations": 5050,
            "Ġhanging": 5051,
            "ache": 5052,
            "aren": 5053,
            "Ġfigures": 5054,
            "Ġtheatre": 5055,
            "Ġcooper": 5056,
            "Ġped": 5057,
            "Ġproof": 5058,
            "new": 5059,
            "Ġintroduced": 5060,
            "Ġpattern": 5061,
            "Ġescap": 5062,
            "Ġult": 5063,
            "Ġknight": 5064,
            "war": 5065,
            "acle": 5066,
            "Ġsel": 5067,
            "Ġgods": 5068,
            "Ġrecent": 5069,
            "Ġattacked": 5070,
            "nament": 5071,
            "Ġbol": 5072,
            "ili": 5073,
            "Ġka": 5074,
            "Ġtraditional": 5075,
            ",'": 5076,
            "vis": 5077,
            "Ġcher": 5078,
            "Ġconcentr": 5079,
            "iance": 5080,
            "Ġcells": 5081,
            "Ġirish": 5082,
            "Ġpiss": 5083,
            "Ġpool": 5084,
            "Ġandy": 5085,
            "Ġentirely": 5086,
            "Ġmanagement": 5087,
            "Ġms": 5088,
            "ern": 5089,
            "Ġsequ": 5090,
            "Ġsales": 5091,
            "Ġships": 5092,
            "Ġsuicide": 5093,
            "agon": 5094,
            "Ġrepublican": 5095,
            "Ġresponsibility": 5096,
            "):": 5097,
            "Ġtay": 5098,
            "Ġolympics": 5099,
            "Ġthroat": 5100,
            "Ġdeput": 5101,
            "Ġhearing": 5102,
            "chi": 5103,
            "isc": 5104,
            "Ġbroadcast": 5105,
            "has": 5106,
            "Ġhal": 5107,
            "Ġthrew": 5108,
            "Ġshell": 5109,
            "Ġpic": 5110,
            "oring": 5111,
            "bey": 5112,
            "Ġparish": 5113,
            "Ġjess": 5114,
            "Ġanx": 5115,
            "Ġplanned": 5116,
            "Ġfinancial": 5117,
            "Ġgiant": 5118,
            "Ġell": 5119,
            "Ġnotes": 5120,
            "rison": 5121,
            "Ġcards": 5122,
            "Ġbreaking": 5123,
            "Ġexerc": 5124,
            "Ġproceed": 5125,
            "Ġveget": 5126,
            "Ġordinary": 5127,
            "nda": 5128,
            "Ġcarefully": 5129,
            "ige": 5130,
            "eding": 5131,
            "Ġexcited": 5132,
            "Ġalan": 5133,
            "rs": 5134,
            "Ġsid": 5135,
            "Ġwire": 5136,
            "Ġdeli": 5137,
            "Ġsacri": 5138,
            "Ġwondering": 5139,
            "Ġrapid": 5140,
            "Ġaah": 5141,
            "Ġstudies": 5142,
            "Ġhabit": 5143,
            "place": 5144,
            "Ġchest": 5145,
            "Ġfalling": 5146,
            "Ġseventy": 5147,
            "Ġaltern": 5148,
            "Ġamy": 5149,
            "Ġbullet": 5150,
            "Ġsenate": 5151,
            "onia": 5152,
            "Ġjohnny": 5153,
            "Ġjewish": 5154,
            "arrass": 5155,
            "keep": 5156,
            "Ġliqu": 5157,
            "Ġfully": 5158,
            "Ġdetails": 5159,
            "Ġmadam": 5160,
            "hu": 5161,
            "Ġdoors": 5162,
            "Ġzeal": 5163,
            "Ġguitar": 5164,
            "stein": 5165,
            "Ġjones": 5166,
            "Ġsched": 5167,
            "azz": 5168,
            "Ġtommy": 5169,
            "Ġlas": 5170,
            "Ġadvert": 5171,
            "Ġdip": 5172,
            "Ġearn": 5173,
            "Ġelizabeth": 5174,
            "Ġsteps": 5175,
            "Ġfate": 5176,
            "Ġhorrible": 5177,
            "Ġkeys": 5178,
            "Ġthou": 5179,
            "Ġwinning": 5180,
            "-to": 5181,
            "lict": 5182,
            "Ġdisappeared": 5183,
            "Ġembarrass": 5184,
            "Ġorche": 5185,
            "Ġjohnson": 5186,
            "ndered": 5187,
            "onse": 5188,
            "Ġcomment": 5189,
            "Ġflow": 5190,
            "Ġremoved": 5191,
            "-time": 5192,
            "Ġpolitics": 5193,
            "fall": 5194,
            "alous": 5195,
            "Ġanal": 5196,
            "Ġalco": 5197,
            "Ġvictory": 5198,
            "Ġgrave": 5199,
            "Ġassum": 5200,
            "Ġhiding": 5201,
            "Ġspin": 5202,
            "Ġholly": 5203,
            "Ġasia": 5204,
            "Ġchosen": 5205,
            "Ġmanu": 5206,
            "Ġgram": 5207,
            "Ġdesire": 5208,
            "Ġowned": 5209,
            "Ġcollection": 5210,
            "Ġelement": 5211,
            "ipping": 5212,
            "Ġko": 5213,
            "ulty": 5214,
            "Ġclock": 5215,
            "Ġcarbon": 5216,
            "Ġguest": 5217,
            "Ġmaid": 5218,
            "tained": 5219,
            "Ġpregnant": 5220,
            "Ġoldest": 5221,
            "ij": 5222,
            "Ġresour": 5223,
            "Ġdisappear": 5224,
            "Ġavoid": 5225,
            "then": 5226,
            "Ġukr": 5227,
            "Ġasleep": 5228,
            "Ġafterwards": 5229,
            "Ġuseful": 5230,
            "Ġrealized": 5231,
            "Ġinhabit": 5232,
            "Ġtab": 5233,
            "Ġaffairs": 5234,
            "Ġanne": 5235,
            "Ġselected": 5236,
            "iform": 5237,
            "Ġprevent": 5238,
            "book": 5239,
            "Ġcru": 5240,
            "rond": 5241,
            "Ġimage": 5242,
            "Ġhamm": 5243,
            "Ġbedroom": 5244,
            "Ġbelief": 5245,
            "icks": 5246,
            "Ġscientific": 5247,
            "Ġincident": 5248,
            "-law": 5249,
            "Ġcomfortable": 5250,
            "Ġdoctors": 5251,
            "Ġlit": 5252,
            "Ġunits": 5253,
            "Ġunlike": 5254,
            "Ġsteel": 5255,
            "Ġsolid": 5256,
            "Ġbrian": 5257,
            "Ġuns": 5258,
            "Ġsalt": 5259,
            "Ġrequire": 5260,
            "Ġsilent": 5261,
            "Ġdressed": 5262,
            "asy": 5263,
            "Ġinvited": 5264,
            "Ġmental": 5265,
            "Ġdesert": 5266,
            "Ġlege": 5267,
            "Ġimper": 5268,
            "Ġbilly": 5269,
            "Ġdaniel": 5270,
            "Ġcops": 5271,
            "Ġmathem": 5272,
            "hetic": 5273,
            "Ġdesk": 5274,
            "Ġinvestigation": 5275,
            "mun": 5276,
            "Ġloose": 5277,
            "Ġves": 5278,
            "Ġsuggested": 5279,
            "Ġpow": 5280,
            "Ġrestaurant": 5281,
            "tes": 5282,
            "Ġiv": 5283,
            "Ġbunch": 5284,
            "Ġplate": 5285,
            "Ġwoods": 5286,
            "Ġdepends": 5287,
            "Ġnoise": 5288,
            "Ġability": 5289,
            "Ġlearning": 5290,
            "Ġorganis": 5291,
            "Ġdaily": 5292,
            "Ġgoddamn": 5293,
            "Ġug": 5294,
            "Ġdrum": 5295,
            "Ġromantic": 5296,
            "Ġprevious": 5297,
            "low": 5298,
            "aning": 5299,
            "Ġdisplay": 5300,
            "\").": 5301,
            "uous": 5302,
            "Ġandrew": 5303,
            "Ġextremely": 5304,
            "lection": 5305,
            "urb": 5306,
            "Ġpresence": 5307,
            "Ġgain": 5308,
            "Ġwash": 5309,
            "Ġhyp": 5310,
            "Ġencour": 5311,
            "may": 5312,
            "ller": 5313,
            "Ġiran": 5314,
            "met": 5315,
            "Ġbathroom": 5316,
            "Ġbass": 5317,
            "Ġcheer": 5318,
            "bury": 5319,
            "Ġpassing": 5320,
            "Ġchanging": 5321,
            "Ġtrail": 5322,
            "Ġlocation": 5323,
            "rondisse": 5324,
            "Ġgather": 5325,
            "Ġhoping": 5326,
            "Ġsurvive": 5327,
            "Ġmarks": 5328,
            "Ġsupply": 5329,
            "Ġtie": 5330,
            "ora": 5331,
            "Ġpleased": 5332,
            "Ġimprove": 5333,
            "Ġlam": 5334,
            "owa": 5335,
            "Ġslightly": 5336,
            "Ġhurricane": 5337,
            "Ġpros": 5338,
            "Ġlegisl": 5339,
            "Ġcute": 5340,
            "-j": 5341,
            "imum": 5342,
            "Ġreceive": 5343,
            "Ġpas": 5344,
            "Ġlin": 5345,
            "Ġcris": 5346,
            "Ġfalls": 5347,
            "onom": 5348,
            "Ġshel": 5349,
            "Ġspect": 5350,
            "Ġswitch": 5351,
            "Ġfurn": 5352,
            "oot": 5353,
            "Ġsees": 5354,
            "Ġaband": 5355,
            "Ġcheese": 5356,
            "Ġnuclear": 5357,
            "essed": 5358,
            "Ġbron": 5359,
            "Ġstole": 5360,
            "Ġpassion": 5361,
            "Ġconnection": 5362,
            "Ġcoal": 5363,
            "Ġmajority": 5364,
            "uals": 5365,
            "oph": 5366,
            "Ġdespite": 5367,
            "cest": 5368,
            "Ġbav": 5369,
            "Ġtoil": 5370,
            "Ġours": 5371,
            "Ġsurgery": 5372,
            "Ġappearance": 5373,
            "Ġsenior": 5374,
            "Ã´": 5375,
            "Ġadvantage": 5376,
            "Ġages": 5377,
            "Ġconnected": 5378,
            "Ġcarrying": 5379,
            "Ġsaving": 5380,
            ".d": 5381,
            "Ġbillion": 5382,
            "agn": 5383,
            "Ġcourage": 5384,
            "Ġfavorite": 5385,
            "Ġrelative": 5386,
            "ika": 5387,
            "Ġastr": 5388,
            "Ġarticle": 5389,
            "Ġhighly": 5390,
            "Ġdisappoint": 5391,
            "Ġconqu": 5392,
            "american": 5393,
            "Ġded": 5394,
            "Ġstruck": 5395,
            "ologist": 5396,
            "Ġhunting": 5397,
            "Ġpunish": 5398,
            "Ġgran": 5399,
            "Ġnarrow": 5400,
            "Ġdeclared": 5401,
            "Ġvic": 5402,
            "Ġfinds": 5403,
            "Ġdave": 5404,
            "ulate": 5405,
            "Ġpope": 5406,
            "ev": 5407,
            "Ġtruly": 5408,
            "Ġeffects": 5409,
            "Ġexplos": 5410,
            "Ġwales": 5411,
            "Ġmood": 5412,
            "Ġunfortunately": 5413,
            "car": 5414,
            "Ġhidden": 5415,
            "Ġrush": 5416,
            "Ġapple": 5417,
            "Ġowner": 5418,
            "Ġborrow": 5419,
            "Ġcu": 5420,
            "Ġaudience": 5421,
            "Ġnorthwest": 5422,
            "Ġentertainment": 5423,
            "Ġsale": 5424,
            "Ġproperly": 5425,
            "Ġdraft": 5426,
            "Ġburning": 5427,
            "Ġconstruction": 5428,
            "Ġlone": 5429,
            "Ġunf": 5430,
            "Ġthy": 5431,
            "Ġchallenge": 5432,
            "ctions": 5433,
            "Ġrocks": 5434,
            "Ġfamiliar": 5435,
            "Ġ=": 5436,
            "-le": 5437,
            "Ġcolumb": 5438,
            "Ġjealous": 5439,
            "Ġprepar": 5440,
            "Ġexpression": 5441,
            "Ġneighbour": 5442,
            "Ġaven": 5443,
            "Ġsed": 5444,
            "Ġislam": 5445,
            "Ġwave": 5446,
            "Ġpaint": 5447,
            "rant": 5448,
            "Ġappeal": 5449,
            "down": 5450,
            "Ġpul": 5451,
            "igan": 5452,
            "Ġcitizens": 5453,
            "esh": 5454,
            "Ġorange": 5455,
            "Ġtip": 5456,
            "Ġnavy": 5457,
            "rences": 5458,
            "Ġsupreme": 5459,
            "Ġwing": 5460,
            "chester": 5461,
            "Ġnominated": 5462,
            "Ġsettled": 5463,
            "Ġmyth": 5464,
            "Ġcontest": 5465,
            "Ġfancy": 5466,
            "Ġstol": 5467,
            "Ġparties": 5468,
            "pre": 5469,
            "Ġmile": 5470,
            "Ġstom": 5471,
            "Ġscri": 5472,
            "Ġfairly": 5473,
            "Ġsi": 5474,
            "Ġbasis": 5475,
            "rd": 5476,
            "Ġrick": 5477,
            "Ġrecording": 5478,
            "Ġnep": 5479,
            "-k": 5480,
            "put": 5481,
            "look": 5482,
            "Ġexecutive": 5483,
            "Ġtort": 5484,
            "Ġbible": 5485,
            "aring": 5486,
            "wan": 5487,
            "Ġsons": 5488,
            "Ġnegative": 5489,
            "worth": 5490,
            "Ġfalse": 5491,
            "Ġdies": 5492,
            "Ġindustrial": 5493,
            "Ġwolf": 5494,
            "quarters": 5495,
            "resp": 5496,
            "Ġlaug": 5497,
            "Ġbelg": 5498,
            "-bye": 5499,
            "Ġunus": 5500,
            "Ġconscious": 5501,
            "Ġactivity": 5502,
            "sex": 5503,
            "Ġbrave": 5504,
            "Ġcontains": 5505,
            "Ġfactory": 5506,
            "Ġgaz": 5507,
            "Ġexperiment": 5508,
            "Ġviolence": 5509,
            "inated": 5510,
            "Ġatom": 5511,
            "Ġhelps": 5512,
            "ingu": 5513,
            "Ġartists": 5514,
            "Ġmurdered": 5515,
            "Ġdawn": 5516,
            "Ġemm": 5517,
            "Ġky": 5518,
            "Ġkings": 5519,
            "Ġtone": 5520,
            "Ġcanton": 5521,
            "gie": 5522,
            "Ġjoint": 5523,
            "Ġelectron": 5524,
            "gt": 5525,
            "sed": 5526,
            "Ġattend": 5527,
            "shire": 5528,
            "Ġarmed": 5529,
            "Ġsenator": 5530,
            "Ġindependence": 5531,
            "ds": 5532,
            "Ġinstitute": 5533,
            "Ġpant": 5534,
            "umn": 5535,
            "Ġfaces": 5536,
            "Ġadvance": 5537,
            "Ġnurse": 5538,
            "Ġbrad": 5539,
            "Ġsche": 5540,
            "Ġcircle": 5541,
            "Ġachieve": 5542,
            "',": 5543,
            "Ġlem": 5544,
            "Ġscale": 5545,
            "Ġvirt": 5546,
            "Ġexchange": 5547,
            "llo": 5548,
            "Ġbones": 5549,
            "Ġkir": 5550,
            "Ġancest": 5551,
            "Ġalice": 5552,
            "Ġprose": 5553,
            "Ġsigns": 5554,
            "ares": 5555,
            "Ġdesper": 5556,
            "Ġcounter": 5557,
            "Ġ/": 5558,
            "Ġresponse": 5559,
            "Ġappointed": 5560,
            "Ġwrit": 5561,
            "bet": 5562,
            "Ġflood": 5563,
            "Ġfilms": 5564,
            "Ġassistant": 5565,
            "Ġvent": 5566,
            "Ġkong": 5567,
            "Ġobvious": 5568,
            "emies": 5569,
            "Ġseasons": 5570,
            "Ġrequired": 5571,
            "Ġtreated": 5572,
            "Ġmail": 5573,
            "Ġspell": 5574,
            "ching": 5575,
            "Ġali": 5576,
            "Ġconstant": 5577,
            "Ġcircumstances": 5578,
            "mother": 5579,
            "Ġpha": 5580,
            "Ġsang": 5581,
            "icked": 5582,
            "Ġbeside": 5583,
            "Ġflu": 5584,
            "Ġhappiness": 5585,
            "Ġhundreds": 5586,
            "Ġdeliver": 5587,
            "ran": 5588,
            "Ġchop": 5589,
            "Ġdefense": 5590,
            "Ġweb": 5591,
            "Ġchamber": 5592,
            "Ġprior": 5593,
            "Ġshoulder": 5594,
            "Ġgrandma": 5595,
            "Ġod": 5596,
            "Ġlif": 5597,
            "oop": 5598,
            "Ġbasic": 5599,
            "Ġmole": 5600,
            "Ġjersey": 5601,
            "Ġrh": 5602,
            "sters": 5603,
            "Ġofficially": 5604,
            "Ġinse": 5605,
            "Ġtongue": 5606,
            "was": 5607,
            "Ġross": 5608,
            "Ġtears": 5609,
            "emic": 5610,
            "Ġdisney": 5611,
            "wo": 5612,
            "Ġschol": 5613,
            "Ġ~": 5614,
            "Ġlaughed": 5615,
            "Ġbishop": 5616,
            "Ġscen": 5617,
            "Ġbudd": 5618,
            "Ġsettlement": 5619,
            "mn": 5620,
            "Ġfel": 5621,
            "Ġchain": 5622,
            "Ġts": 5623,
            "Ġteen": 5624,
            "Ġmeal": 5625,
            "Ġgoals": 5626,
            "Ġwealth": 5627,
            "Ġwhoever": 5628,
            "Ġwhenever": 5629,
            "Ġkevin": 5630,
            "Ġbern": 5631,
            "Ġdrawing": 5632,
            "Ġelev": 5633,
            "Ġberlin": 5634,
            "Ġzealand": 5635,
            "olved": 5636,
            "Ġagreement": 5637,
            "Ġdiss": 5638,
            "Ġmuslim": 5639,
            "ography": 5640,
            "Ġcommitted": 5641,
            "Ġunknown": 5642,
            "Ġshadow": 5643,
            "Ġvision": 5644,
            "Ġacid": 5645,
            "Ġbudget": 5646,
            "Ġmanufact": 5647,
            "bly": 5648,
            "icted": 5649,
            "Ġrecognize": 5650,
            "Ġpapa": 5651,
            "Ġtouched": 5652,
            "Ġstad": 5653,
            "Ġmonster": 5654,
            "inson": 5655,
            "Ġballs": 5656,
            "Ġmummy": 5657,
            "ucky": 5658,
            "Ġprepare": 5659,
            "Ġasian": 5660,
            "Ġportug": 5661,
            "Ġawarded": 5662,
            "mes": 5663,
            "ague": 5664,
            "Ġatm": 5665,
            "Ġsuffe": 5666,
            "iest": 5667,
            "Ġmatt": 5668,
            "Ġprovided": 5669,
            "Ġstands": 5670,
            "-th": 5671,
            "eaks": 5672,
            "Ġreform": 5673,
            "Ġjung": 5674,
            "Ġflash": 5675,
            "Ġsentence": 5676,
            "Ġinternet": 5677,
            "Ġwarning": 5678,
            "Ġclever": 5679,
            "Ġfields": 5680,
            "Ġpermission": 5681,
            "Ġdna": 5682,
            "Ġsending": 5683,
            "Ġregret": 5684,
            "your": 5685,
            "Ġbaseball": 5686,
            "Ġhomes": 5687,
            "Ġturk": 5688,
            "when": 5689,
            "Ġfab": 5690,
            "Ġkansas": 5691,
            "Ġcosts": 5692,
            "Ġapproach": 5693,
            "Ġfolks": 5694,
            "sen": 5695,
            "Ġnut": 5696,
            "Ġpreviously": 5697,
            "Ġmemor": 5698,
            "Ġlew": 5699,
            "Ġgeneration": 5700,
            "Ġphoto": 5701,
            "Ġax": 5702,
            "iro": 5703,
            "non": 5704,
            "Ġinqu": 5705,
            "Ġtrave": 5706,
            "outs": 5707,
            "Ġassh": 5708,
            "usted": 5709,
            "Ġwars": 5710,
            "Ġinstance": 5711,
            "Ġbetray": 5712,
            "Ġcarolina": 5713,
            "bar": 5714,
            "tar": 5715,
            "Ġgab": 5716,
            "Ġresident": 5717,
            "Ġwise": 5718,
            "Ġmommy": 5719,
            "Ġamend": 5720,
            "cks": 5721,
            "Ġll": 5722,
            "Ġchocol": 5723,
            "Ġphilipp": 5724,
            "Ġchose": 5725,
            "ropri": 5726,
            "Ġduke": 5727,
            "water": 5728,
            "imately": 5729,
            "Ġrepresentatives": 5730,
            "Ġtask": 5731,
            "Ġboston": 5732,
            "Ġmunicipal": 5733,
            "Ġconsequ": 5734,
            "Ġscript": 5735,
            "Ġgray": 5736,
            "Ġchecked": 5737,
            "Ġintelligence": 5738,
            "urally": 5739,
            "Ġviet": 5740,
            "Ġatlantic": 5741,
            "miss": 5742,
            "rit": 5743,
            "Ġjr": 5744,
            "Ġenemies": 5745,
            "Ġblank": 5746,
            "ulated": 5747,
            "Ġmerc": 5748,
            "Ġfigured": 5749,
            "osphere": 5750,
            "Ġeditor": 5751,
            "Ġze": 5752,
            "Ġsymbol": 5753,
            "Ġchart": 5754,
            "Ġilleg": 5755,
            "Ġconcert": 5756,
            "Ġstatus": 5757,
            "Ġbreathe": 5758,
            "Ġgrav": 5759,
            "hens": 5760,
            "Ġhay": 5761,
            "Ġclar": 5762,
            "Ġreports": 5763,
            "Ġsquad": 5764,
            "hall": 5765,
            "Ġpill": 5766,
            "Ġticket": 5767,
            "izes": 5768,
            "Ġwaited": 5769,
            "Ġheadquarters": 5770,
            "Åį": 5771,
            "Ġuniform": 5772,
            "Ġbrings": 5773,
            "Ġdeserve": 5774,
            "Ġaustria": 5775,
            "Ġexhib": 5776,
            "Ġtournament": 5777,
            "claimed": 5778,
            "ple": 5779,
            "Ġchase": 5780,
            "Ġdarkness": 5781,
            "Ġtu": 5782,
            "Ġimpress": 5783,
            "Ã©e": 5784,
            "Ġstolen": 5785,
            "Ġremembered": 5786,
            "Ġanton": 5787,
            "Ġbuzz": 5788,
            "Ġlect": 5789,
            "Ġnights": 5790,
            "Ġsuffering": 5791,
            "Ġnom": 5792,
            "Ġsetting": 5793,
            "Ġauthorities": 5794,
            "Ġwings": 5795,
            "will": 5796,
            "Ġbrazilian": 5797,
            "ception": 5798,
            "gging": 5799,
            "vania": 5800,
            "Ġrefused": 5801,
            "Ġattorn": 5802,
            "Ġpresidential": 5803,
            "Ġmand": 5804,
            "Ġbent": 5805,
            "ffff": 5806,
            "Ġfortune": 5807,
            "Ġliterature": 5808,
            "pro": 5809,
            "Ġbeast": 5810,
            "Ġalpha": 5811,
            "Ġolympic": 5812,
            "rical": 5813,
            "Ġplatform": 5814,
            "Ġbreast": 5815,
            "Ġinsurance": 5816,
            "sm": 5817,
            "Ġinhabitants": 5818,
            "Ġlung": 5819,
            "Ġreaction": 5820,
            "Ġfolk": 5821,
            "Ġpatients": 5822,
            "ropol": 5823,
            "Ġryan": 5824,
            "Ġrif": 5825,
            "ani": 5826,
            "Ġexistence": 5827,
            "Ġou": 5828,
            "-sh": 5829,
            "Ġmoves": 5830,
            "Ġshirt": 5831,
            "Ġbuying": 5832,
            "gues": 5833,
            "Ġrespond": 5834,
            "Ġpete": 5835,
            "Ġlimited": 5836,
            "part": 5837,
            "Ġcommit": 5838,
            "Ġfame": 5839,
            "empl": 5840,
            "Ġpoly": 5841,
            "Ġcrash": 5842,
            "Ġstronger": 5843,
            "onsense": 5844,
            "Ġsupported": 5845,
            "Ġcigaret": 5846,
            "Ġattitude": 5847,
            "Ġprimary": 5848,
            "Ġiowa": 5849,
            "Ġdum": 5850,
            "Ġsheep": 5851,
            "Ġwinner": 5852,
            "-like": 5853,
            "Ġrings": 5854,
            "ading": 5855,
            "Ġdistributed": 5856,
            "Ġconcern": 5857,
            "Ġsuffered": 5858,
            "gment": 5859,
            "Ġdump": 5860,
            "Ġcollea": 5861,
            "Ġstomach": 5862,
            "Ġsubs": 5863,
            "Ġequip": 5864,
            "Ġast": 5865,
            "Ġrooms": 5866,
            "inate": 5867,
            "Ġloyal": 5868,
            "Ġbanks": 5869,
            "Ġnoble": 5870,
            "Ġunderstanding": 5871,
            "ribution": 5872,
            "lies": 5873,
            "Ġscored": 5874,
            "Ġracing": 5875,
            "Ġay": 5876,
            "Ġhonestly": 5877,
            "Ġexamples": 5878,
            "Ġcomplain": 5879,
            "eman": 5880,
            "Ġcompared": 5881,
            "athy": 5882,
            "Ġbadly": 5883,
            "Ġvoc": 5884,
            "Ġincreased": 5885,
            "Ġkorean": 5886,
            "lock": 5887,
            "Ġpor": 5888,
            "ucker": 5889,
            "Ġpushed": 5890,
            "Ġoxy": 5891,
            "Ġnurs": 5892,
            "Ġspare": 5893,
            "Ġaircraft": 5894,
            "Ġprisoners": 5895,
            "Ġbutt": 5896,
            "Ġelder": 5897,
            "Ġproducts": 5898,
            "Ġdeputy": 5899,
            "Ã¸": 5900,
            "Ġguar": 5901,
            "Ġdealing": 5902,
            "Ġjunior": 5903,
            "Ġshore": 5904,
            "Ġyell": 5905,
            "Ġsuspic": 5906,
            "Ġprogramme": 5907,
            "Ġbrid": 5908,
            "Ġmarie": 5909,
            "era": 5910,
            "Ġsevere": 5911,
            "Ġdram": 5912,
            "Ġcommercial": 5913,
            "Ġpir": 5914,
            "Ġperman": 5915,
            "Ġmud": 5916,
            "Ġrus": 5917,
            "rier": 5918,
            "Ġdrawn": 5919,
            "Ġestate": 5920,
            "Ġstations": 5921,
            "mus": 5922,
            "Ġfallen": 5923,
            "Ġlen": 5924,
            "Ġreckon": 5925,
            "wich": 5926,
            "also": 5927,
            "iev": 5928,
            "Ġsixth": 5929,
            "Ġstadium": 5930,
            "-and": 5931,
            "Ġgrowth": 5932,
            "Ġmerely": 5933,
            "Ġtaylor": 5934,
            "Ġeric": 5935,
            "phy": 5936,
            "shit": 5937,
            "Ġmadame": 5938,
            "Ġdunno": 5939,
            "Ġheav": 5940,
            "Ġhunt": 5941,
            "ĠâĢĶ": 5942,
            "Ġthurs": 5943,
            "ysis": 5944,
            "aken": 5945,
            "chuck": 5946,
            "Ġsteam": 5947,
            "Ġpilot": 5948,
            "Ġbavaria": 5949,
            "Ġdub": 5950,
            "otic": 5951,
            "**": 5952,
            "adel": 5953,
            "Ġgotten": 5954,
            "Ġpride": 5955,
            "Ġfantastic": 5956,
            "Ġagency": 5957,
            "syl": 5958,
            "Ġdumb": 5959,
            "Ġliver": 5960,
            "anged": 5961,
            "Ġzero": 5962,
            "Ġfuneral": 5963,
            "fr": 5964,
            "Ġpoll": 5965,
            "Ġcommonly": 5966,
            "Ġbenefit": 5967,
            "Ġvictims": 5968,
            "lers": 5969,
            "tan": 5970,
            "Ġsweetheart": 5971,
            "Ġengaged": 5972,
            "Ġimportance": 5973,
            "Ġslept": 5974,
            "Ġoccurred": 5975,
            "inger": 5976,
            "ricult": 5977,
            "Ġconflict": 5978,
            "dra": 5979,
            "ros": 5980,
            "Ġelements": 5981,
            "uesday": 5982,
            "Ġobserv": 5983,
            "Ġdiscover": 5984,
            "gal": 5985,
            "Ġthee": 5986,
            "Ġbits": 5987,
            "Ġgreg": 5988,
            "Ġnether": 5989,
            "Ġbom": 5990,
            "cho": 5991,
            "Ġbackground": 5992,
            "etch": 5993,
            "aki": 5994,
            "Ġcav": 5995,
            "kyo": 5996,
            "ograp": 5997,
            "Ġorchestra": 5998,
            "Ġpacific": 5999,
            "-one": 6000,
            "enger": 6001,
            "ati": 6002,
            "etic": 6003,
            "Ġwrestling": 6004,
            "oom": 6005,
            "Ġdesce": 6006,
            "Ġcompleted": 6007,
            "Ġcopies": 6008,
            "Ġpolish": 6009,
            "Ġalbums": 6010,
            "Ġthursday": 6011,
            "Ġvessel": 6012,
            "mont": 6013,
            "Ġbasketball": 6014,
            "Ġsuffer": 6015,
            "which": 6016,
            "Ġfrancisco": 6017,
            "Ġattorney": 6018,
            "Ġeaten": 6019,
            "Ġunusual": 6020,
            "esome": 6021,
            "Ġcharges": 6022,
            "Ġclasses": 6023,
            "Ġcin": 6024,
            "Ġargent": 6025,
            "Ġcontent": 6026,
            "Ġsisters": 6027,
            "Ġproced": 6028,
            "Ġmillions": 6029,
            "Ġtuesday": 6030,
            "usting": 6031,
            "Ġagricult": 6032,
            "itty": 6033,
            "Ġletting": 6034,
            "Ġpersonally": 6035,
            "Ġrecognized": 6036,
            "Ġneighborhood": 6037,
            "Ġactivities": 6038,
            "Ġrivers": 6039,
            "Ġstarring": 6040,
            "Ġalf": 6041,
            "Ġhandsome": 6042,
            "Ġbeneath": 6043,
            "Ġanna": 6044,
            "Ġbush": 6045,
            "Ġbegins": 6046,
            "Ġdrove": 6047,
            "Ġurban": 6048,
            "Ġstruggle": 6049,
            "Ġaside": 6050,
            "Ġari": 6051,
            "Ġmath": 6052,
            "Ġbure": 6053,
            ".)": 6054,
            "Ġconsult": 6055,
            "Ġsteven": 6056,
            "Ġchampionships": 6057,
            "Ġequipment": 6058,
            "Ġlevels": 6059,
            "Ġvehicle": 6060,
            "Ġrug": 6061,
            "Ġjake": 6062,
            "Ġnowhere": 6063,
            "Ġshopping": 6064,
            "Ġrevenge": 6065,
            "Ġneare": 6066,
            "Ġquant": 6067,
            "Ġyard": 6068,
            "Ġnonsense": 6069,
            "Ġstab": 6070,
            "iments": 6071,
            "Ġcalcul": 6072,
            "Ġkenned": 6073,
            "Ġmexican": 6074,
            "Ġnail": 6075,
            "bridge": 6076,
            "real": 6077,
            "Ġroads": 6078,
            "Ġturkey": 6079,
            "Ġpity": 6080,
            "Ġgary": 6081,
            "Ġinstrument": 6082,
            "Ġpennsyl": 6083,
            "Ġpartners": 6084,
            "Ġlion": 6085,
            "Ġhes": 6086,
            "atherine": 6087,
            "Ġnuts": 6088,
            "Ã³n": 6089,
            "Ġbone": 6090,
            "Ġfuckin": 6091,
            "Ġrhy": 6092,
            "verse": 6093,
            "Ġgoods": 6094,
            "Ġbelongs": 6095,
            "Ġbite": 6096,
            "Ġcrick": 6097,
            "Ġslave": 6098,
            "col": 6099,
            "Ġcurious": 6100,
            "Ġexpert": 6101,
            "good": 6102,
            "heim": 6103,
            "Ġpip": 6104,
            "Ġawesome": 6105,
            "Ġsanta": 6106,
            "estic": 6107,
            "Ġaer": 6108,
            "Ġexplained": 6109,
            "Ġtied": 6110,
            "Ġbub": 6111,
            "Ġacts": 6112,
            "Ġexplan": 6113,
            "Ġinspector": 6114,
            "Ġlimit": 6115,
            "Ġbobby": 6116,
            "wick": 6117,
            "Ġlegend": 6118,
            "Ġwitch": 6119,
            "Ġlane": 6120,
            "clus": 6121,
            "Ġhistorical": 6122,
            "Ġaid": 6123,
            "nesday": 6124,
            "Ġeconomy": 6125,
            "Ġlaura": 6126,
            "Ġjulie": 6127,
            "Ġwound": 6128,
            "eau": 6129,
            "Ġcruel": 6130,
            "stone": 6131,
            "Ġintroduce": 6132,
            "Ġphilosophy": 6133,
            "Ġalcohol": 6134,
            "Ġharder": 6135,
            "Ġdescribe": 6136,
            "Ġrig": 6137,
            "iy": 6138,
            "Ġpeak": 6139,
            "oto": 6140,
            "Ġsouthwest": 6141,
            "vid": 6142,
            "Ġcateg": 6143,
            "Ġrice": 6144,
            "Ġpale": 6145,
            "Ġmons": 6146,
            "Ġtrump": 6147,
            "Ġpubl": 6148,
            "ĠÌģt": 6149,
            "Ġwaters": 6150,
            "Ġfishing": 6151,
            "iece": 6152,
            "Ġtrains": 6153,
            "ucted": 6154,
            "Ġruled": 6155,
            "Ġlonely": 6156,
            "ateful": 6157,
            "mann": 6158,
            "Ġlaunch": 6159,
            "Ġdepend": 6160,
            "Ġnearby": 6161,
            "Ġrepresented": 6162,
            "Ġcooking": 6163,
            "Ġkennedy": 6164,
            "Ġ(,": 6165,
            "Ġzone": 6166,
            "Ġnarrator": 6167,
            "Ġtokyo": 6168,
            "Ġdecor": 6169,
            "Ġwednesday": 6170,
            "Ġreferred": 6171,
            "Ġresources": 6172,
            "Ġtag": 6173,
            "Ġpennsylvania": 6174,
            "wide": 6175,
            "Ġphr": 6176,
            "Ġinterrupt": 6177,
            "Ġjerry": 6178,
            "Ġkelly": 6179,
            "Ġhired": 6180,
            "Ġfbi": 6181,
            "Ġvictoria": 6182,
            "Ġford": 6183,
            "Ġfoundation": 6184,
            "Ġfacts": 6185,
            "Ġdisg": 6186,
            "Ġmultiple": 6187,
            "Ġgene": 6188,
            "-al": 6189,
            "lom": 6190,
            "sighs": 6191,
            "Ġnaked": 6192,
            "Ġthrown": 6193,
            "Ġattacks": 6194,
            "Ġdefeated": 6195,
            "kel": 6196,
            "Ġsole": 6197,
            "Ġdeck": 6198,
            "Ġlands": 6199,
            "Ġmoral": 6200,
            "Ġwalter": 6201,
            "Ġswedish": 6202,
            "Ġincredible": 6203,
            "Ġak": 6204,
            "Ġfreak": 6205,
            "Ġsymptom": 6206,
            "Ġsheriff": 6207,
            "awa": 6208,
            "Ġsolution": 6209,
            "Ġburned": 6210,
            "Ġdegrees": 6211,
            "Ġugly": 6212,
            "Ġbour": 6213,
            "onscious": 6214,
            "Ġalexander": 6215,
            "Ġkur": 6216,
            "pson": 6217,
            "Ġcapable": 6218,
            "Ġprovin": 6219,
            "bal": 6220,
            "Ġrepeated": 6221,
            "lines": 6222,
            "Ġchapter": 6223,
            "Ġcomplicated": 6224,
            "Ġanswers": 6225,
            "cing": 6226,
            "oln": 6227,
            "Ġguarant": 6228,
            "tis": 6229,
            "Ġbun": 6230,
            "lan": 6231,
            "standing": 6232,
            "Ġlatter": 6233,
            "Ġaffair": 6234,
            "alais": 6235,
            "Ġabd": 6236,
            "Ġtempor": 6237,
            "Ġens": 6238,
            "Ġswing": 6239,
            "Ġchocolate": 6240,
            "Ġseek": 6241,
            "Ġark": 6242,
            "Ġconvention": 6243,
            "ua": 6244,
            "Ġbart": 6245,
            "Ġconce": 6246,
            "Ġevolution": 6247,
            "dr": 6248,
            "Ġimpression": 6249,
            "Ġbarry": 6250,
            "Ġretire": 6251,
            "Ġrevol": 6252,
            "Ġfoss": 6253,
            "Ġfeature": 6254,
            "Ġfriendship": 6255,
            "Ġclosely": 6256,
            "Ġdefeat": 6257,
            "while": 6258,
            "Ġiii": 6259,
            "Ġsubt": 6260,
            "otion": 6261,
            "onic": 6262,
            "Ġgalax": 6263,
            "Ġfriendly": 6264,
            "Ġlucy": 6265,
            "Ġapply": 6266,
            "Ġstress": 6267,
            "bled": 6268,
            "cution": 6269,
            "Ġpants": 6270,
            "leg": 6271,
            "Ġgrandfather": 6272,
            "Ġjulia": 6273,
            "Ġcaptured": 6274,
            "Ġwilson": 6275,
            "western": 6276,
            "Ġdating": 6277,
            "tending": 6278,
            "-calais": 6279,
            "Ġinnit": 6280,
            "boy": 6281,
            "Ġclark": 6282,
            "Ġsmo": 6283,
            "Ġoxford": 6284,
            "Ġgif": 6285,
            "osis": 6286,
            "Ġnaturally": 6287,
            "Ġrachel": 6288,
            "Ġnetherlands": 6289,
            "Ġ_": 6290,
            "Ġoxygen": 6291,
            "iva": 6292,
            "Ġmetropol": 6293,
            "iac": 6294,
            "Ġcarter": 6295,
            "Ġeighteen": 6296,
            "Ġincome": 6297,
            "iven": 6298,
            "Ġbetty": 6299,
            "Ġpretend": 6300,
            "Ġlaun": 6301,
            "Ġfollows": 6302,
            "Ġwinds": 6303,
            "Ġdozen": 6304,
            "Ġclay": 6305,
            "Ġestim": 6306,
            "Ġdish": 6307,
            "Ġcraw": 6308,
            "Ġmemories": 6309,
            "Ġrepeat": 6310,
            "Ġdemonstr": 6311,
            "Ġwins": 6312,
            "Ġjason": 6313,
            "Ġhousehold": 6314,
            "bra": 6315,
            "Ġdiet": 6316,
            "rad": 6317,
            "oman": 6318,
            "Ġera": 6319,
            "ashing": 6320,
            "Ġvin": 6321,
            "Ġproposed": 6322,
            "ieur": 6323,
            "Ġbuff": 6324,
            "Ġjord": 6325,
            "Ġdistricts": 6326,
            "Ġrescue": 6327,
            "Ġtrained": 6328,
            "Ġdiscovery": 6329,
            "Ġwounded": 6330,
            "Ġgig": 6331,
            "Ġminus": 6332,
            "Ġimpact": 6333,
            "Ġgenius": 6334,
            "atics": 6335,
            "Ġobjects": 6336,
            "inals": 6337,
            "thew": 6338,
            "Ġtickets": 6339,
            "Ġcass": 6340,
            "Ġmeters": 6341,
            "Ġlesson": 6342,
            "Ġheading": 6343,
            "Ġdetermined": 6344,
            "Ġsignificant": 6345,
            "Ã¦": 6346,
            "unte": 6347,
            "Ġsomewhat": 6348,
            "aka": 6349,
            "Ġcryst": 6350,
            "-american": 6351,
            "arrondisse": 6352,
            "Ġreject": 6353,
            "Ġrelief": 6354,
            "Ġholds": 6355,
            "Ġaustrian": 6356,
            "ordon": 6357,
            "gon": 6358,
            "Ġwebs": 6359,
            "Ġbullshit": 6360,
            "Ġaqu": 6361,
            "Ġjews": 6362,
            "Ġmargaret": 6363,
            "-off": 6364,
            "Ġstairs": 6365,
            "Ġguests": 6366,
            "Ġriding": 6367,
            "Ġscottish": 6368,
            "Ġaccompl": 6369,
            "Ġcutting": 6370,
            "Ġaccompan": 6371,
            "Ġsurround": 6372,
            "Ġlinc": 6373,
            "ami": 6374,
            "acks": 6375,
            "Ġfake": 6376,
            "Ġlied": 6377,
            "Ġremove": 6378,
            "\"),": 6379,
            "Ġdistinct": 6380,
            "Ġanthony": 6381,
            "Ġwhist": 6382,
            "abor": 6383,
            "Ġlover": 6384,
            "Ġactions": 6385,
            "Ġstrang": 6386,
            "Ġlun": 6387,
            "Ġvon": 6388,
            "Ġcenturies": 6389,
            "Ġmurde": 6390,
            "Ġsecure": 6391,
            "-cl": 6392,
            "oses": 6393,
            "ela": 6394,
            "Ġdevice": 6395,
            "Ġmystery": 6396,
            "iring": 6397,
            "Ġate": 6398,
            "Ġstring": 6399,
            "vior": 6400,
            "Ġestablish": 6401,
            "Ġpoland": 6402,
            "Ġglasses": 6403,
            "Ġapologize": 6404,
            "Ġcandidate": 6405,
            "had": 6406,
            "Ġbos": 6407,
            "Ġputs": 6408,
            "Ġasshole": 6409,
            "Ġnord": 6410,
            "uls": 6411,
            "Ġpleasant": 6412,
            "Ġdragon": 6413,
            "Ġjournalist": 6414,
            "Ġgreet": 6415,
            "Ġpotential": 6416,
            "adesh": 6417,
            "Ġinfect": 6418,
            "Ġpurcha": 6419,
            "Ġgoin": 6420,
            "Ġvariety": 6421,
            "ked": 6422,
            "Ġclint": 6423,
            "Ġsets": 6424,
            "Ġserving": 6425,
            "Ġlately": 6426,
            "Ġinsect": 6427,
            "Ġseats": 6428,
            "Ġtheme": 6429,
            "Ġpresented": 6430,
            "Ġvolunte": 6431,
            "owed": 6432,
            "uctions": 6433,
            "Ġhast": 6434,
            "Ġfasc": 6435,
            "Ġnag": 6436,
            "Ġsurre": 6437,
            "Ġfiction": 6438,
            "Ġatmosphere": 6439,
            "Ġlewis": 6440,
            "Ġminds": 6441,
            "Ġhearts": 6442,
            "Ġmarked": 6443,
            "Ġconsist": 6444,
            "Ġhurts": 6445,
            "etts": 6446,
            "ivity": 6447,
            "Ġglob": 6448,
            "Ġassume": 6449,
            "Ġconfused": 6450,
            "Ġadministration": 6451,
            "hamed": 6452,
            "Ġmethods": 6453,
            "Ġpurs": 6454,
            "intend": 6455,
            "encies": 6456,
            "Ġhong": 6457,
            "Ġcreature": 6458,
            "Ġmurderer": 6459,
            "Ġwra": 6460,
            "reck": 6461,
            "Ġbc": 6462,
            "Ġdow": 6463,
            "Ġrud": 6464,
            "sell": 6465,
            "Ġtorn": 6466,
            "Ġsoil": 6467,
            "Ġescaped": 6468,
            "Ġbehavior": 6469,
            "Ġjury": 6470,
            "Ġargument": 6471,
            "Ġconfidence": 6472,
            "Ġpractical": 6473,
            "Ġmaintain": 6474,
            "Ġshortly": 6475,
            "Ġexpecting": 6476,
            "Ġgeorgia": 6477,
            "dess": 6478,
            "inent": 6479,
            "Ġgoodness": 6480,
            "Ġadventure": 6481,
            "Ġais": 6482,
            "Ġfever": 6483,
            "Ġcrossed": 6484,
            "anche": 6485,
            "liest": 6486,
            "Ġexercise": 6487,
            "ropriate": 6488,
            "Ġtank": 6489,
            "Ġbreathing": 6490,
            "oti": 6491,
            "otte": 6492,
            "Ġdelay": 6493,
            "Ġbacter": 6494,
            "Ġtoilet": 6495,
            "Ġwarri": 6496,
            "Ġcontinues": 6497,
            "rogen": 6498,
            "bid": 6499,
            "Ġconsum": 6500,
            "Ġmusician": 6501,
            "Ġsooner": 6502,
            "Ġale": 6503,
            "Ġspo": 6504,
            "Ġemma": 6505,
            "unts": 6506,
            "Ġbug": 6507,
            "Ġpotato": 6508,
            "Ġvel": 6509,
            "hus": 6510,
            "acing": 6511,
            "Ġmatthew": 6512,
            "via": 6513,
            "icated": 6514,
            "iture": 6515,
            "Ġheaded": 6516,
            "Ġinvented": 6517,
            "Ġbalance": 6518,
            "Ġlincoln": 6519,
            "Ġtalks": 6520,
            "vest": 6521,
            "Ġunable": 6522,
            "Ġwherever": 6523,
            "Ġnan": 6524,
            "ads": 6525,
            "hers": 6526,
            "Ġcheers": 6527,
            "Ġglor": 6528,
            "Ġsites": 6529,
            "Ġdefence": 6530,
            "Ġvolcan": 6531,
            "Ġroy": 6532,
            "Ġdepos": 6533,
            "Ġexciting": 6534,
            "Ġbabies": 6535,
            "works": 6536,
            "Ġadopted": 6537,
            "Ġearned": 6538,
            "Äģ": 6539,
            "Ġteachers": 6540,
            "uits": 6541,
            "Ġlisa": 6542,
            "his": 6543,
            "Ġhighway": 6544,
            "Ġwalt": 6545,
            "Ġsurrounded": 6546,
            "Ġdivorce": 6547,
            "Ġmcc": 6548,
            "phia": 6549,
            "Ġpainted": 6550,
            "Ġregional": 6551,
            "Ġlux": 6552,
            "Ġira": 6553,
            "Ġfuel": 6554,
            "Ġtreasure": 6555,
            "Ġhorror": 6556,
            "case": 6557,
            "Ġbum": 6558,
            "Ġsyn": 6559,
            "Ġwand": 6560,
            "Ġlabel": 6561,
            "Ġreviews": 6562,
            "Ã§": 6563,
            "hew": 6564,
            "osa": 6565,
            "Ġmosc": 6566,
            "Ġdur": 6567,
            "utions": 6568,
            "Ġguide": 6569,
            "force": 6570,
            "Ġmagnet": 6571,
            "Ġshower": 6572,
            "achus": 6573,
            "Ġprofession": 6574,
            "Ġguards": 6575,
            "Ġinsane": 6576,
            "fa": 6577,
            "Ġinsp": 6578,
            "Ġleads": 6579,
            "po": 6580,
            "Ġproved": 6581,
            "Ġfortun": 6582,
            "aud": 6583,
            "Ġcabinet": 6584,
            "Ġkilomet": 6585,
            "Ġonline": 6586,
            "Ġanger": 6587,
            "Ġfourteen": 6588,
            "Ġsixteen": 6589,
            "Ġdiscip": 6590,
            "Ġanno": 6591,
            "Ġchef": 6592,
            "Ġanimated": 6593,
            "Ġregions": 6594,
            "Ġhealthy": 6595,
            "Ġswimming": 6596,
            "Ġsue": 6597,
            "Ġillness": 6598,
            "Ġvalu": 6599,
            "Ġscheme": 6600,
            "Ġmanip": 6601,
            "Ġmercy": 6602,
            "Ġrib": 6603,
            "Ġillegal": 6604,
            "Ġreward": 6605,
            "Ġkidna": 6606,
            "Ġorganized": 6607,
            "Ġprisoner": 6608,
            "Ġengineering": 6609,
            "Ġcompeted": 6610,
            "Ġrecommend": 6611,
            "Ġchess": 6612,
            "Ġillustr": 6613,
            "rich": 6614,
            "Ġbutton": 6615,
            "gent": 6616,
            "wing": 6617,
            "Ġwore": 6618,
            "Ġchildhood": 6619,
            "Ġmonsieur": 6620,
            "Ġfleet": 6621,
            "Ġburst": 6622,
            "Ġcycl": 6623,
            "adelphia": 6624,
            "Ġstones": 6625,
            "osh": 6626,
            "Ġnumer": 6627,
            "box": 6628,
            "Ġau": 6629,
            "Ġsink": 6630,
            "Ġmos": 6631,
            "eping": 6632,
            "Ġinstant": 6633,
            "Ġcord": 6634,
            "Ġleaf": 6635,
            "Ġwilliams": 6636,
            "Ġinjured": 6637,
            "Ġdrinks": 6638,
            "erable": 6639,
            "Ġdisord": 6640,
            "Ġtrace": 6641,
            "Ġpersonality": 6642,
            "Ġmorgan": 6643,
            "zing": 6644,
            "Ġrising": 6645,
            "Ġgat": 6646,
            "eps": 6647,
            "Ġentrance": 6648,
            "-san": 6649,
            "Ġmirror": 6650,
            "Ġadministrative": 6651,
            "Ġtoy": 6652,
            "Ġplot": 6653,
            "Ġaffected": 6654,
            "Ġapplied": 6655,
            "Ġspending": 6656,
            "-huh": 6657,
            "Ġdestr": 6658,
            "Ġwoo": 6659,
            "Ġalbert": 6660,
            "Ġconservative": 6661,
            "Ġbruce": 6662,
            "Ġsum": 6663,
            "Ġinstinct": 6664,
            "Ġskills": 6665,
            "Ġvoices": 6666,
            "action": 6667,
            "Ġconvin": 6668,
            "agan": 6669,
            "Ġscare": 6670,
            "Ġshake": 6671,
            "ella": 6672,
            "haw": 6673,
            "Ġexha": 6674,
            "Ġelectricity": 6675,
            "Ġpump": 6676,
            "Ġdrown": 6677,
            "Ġsnake": 6678,
            "Ġmich": 6679,
            "aya": 6680,
            "lley": 6681,
            "Ġtransform": 6682,
            "Ġexpand": 6683,
            "Ġprefect": 6684,
            "Ġdepart": 6685,
            "Ġfrag": 6686,
            "Ġimperial": 6687,
            "achusetts": 6688,
            ",you": 6689,
            "Ġleonard": 6690,
            "lie": 6691,
            "ois": 6692,
            "acity": 6693,
            "Ġmans": 6694,
            "Ġadvanced": 6695,
            "Ġpenny": 6696,
            "fice": 6697,
            "Ġcert": 6698,
            "Ġwy": 6699,
            "Ġeddie": 6700,
            "Ġarranged": 6701,
            "Ġrein": 6702,
            "Ġcultural": 6703,
            "Ġfart": 6704,
            "Ġsusan": 6705,
            "abad": 6706,
            "engers": 6707,
            "Ġbrig": 6708,
            "âĢĻll": 6709,
            "Ġaspect": 6710,
            "Ġchristop": 6711,
            "Ġeth": 6712,
            "Ġstu": 6713,
            "unting": 6714,
            "Ġclaimed": 6715,
            "Ġbond": 6716,
            "Ġreput": 6717,
            "Ġelephan": 6718,
            "Ġphiladelphia": 6719,
            "aph": 6720,
            "Ġmassachusetts": 6721,
            "Ġconfirmed": 6722,
            "laughs": 6723,
            "Ġengineer": 6724,
            "Ġtracks": 6725,
            "uri": 6726,
            "Ġgrateful": 6727,
            "Ġ[": 6728,
            "Ġrip": 6729,
            "Ġdean": 6730,
            "Ġidentity": 6731,
            "lets": 6732,
            "Ġprograms": 6733,
            "hamm": 6734,
            "Ġsingles": 6735,
            "Ġsoftware": 6736,
            "bb": 6737,
            "Ġoak": 6738,
            "Ġextraord": 6739,
            "Ġnickn": 6740,
            "Ġunique": 6741,
            "Ġuseless": 6742,
            "Ġreference": 6743,
            "Ġrecon": 6744,
            "etime": 6745,
            "Ġconfident": 6746,
            "Ġgermans": 6747,
            "Ġunderground": 6748,
            "Ġkeen": 6749,
            "Ġmassive": 6750,
            "Ġinterests": 6751,
            "Ġsmooth": 6752,
            "rÃ©": 6753,
            "Ġgenus": 6754,
            "door": 6755,
            "umes": 6756,
            "Ġpiz": 6757,
            "Ġpointed": 6758,
            "Ġliterally": 6759,
            "Ġgil": 6760,
            "thy": 6761,
            "Ġaccur": 6762,
            "Ġpoetry": 6763,
            "Ġshoulders": 6764,
            "Ġcalend": 6765,
            "Ġsufficient": 6766,
            "Ġsymptoms": 6767,
            "Ġjordan": 6768,
            "amin": 6769,
            "Ġspeaker": 6770,
            "Ġoperations": 6771,
            "Ġbelt": 6772,
            "uan": 6773,
            "Ġstir": 6774,
            "burgh": 6775,
            "Ġadmiral": 6776,
            "Ġapplication": 6777,
            "Ġruined": 6778,
            "Ġquietly": 6779,
            "Ġmaterials": 6780,
            "Ġpour": 6781,
            "Ġalarm": 6782,
            "Ġshared": 6783,
            "Å¡": 6784,
            "Ġwaves": 6785,
            "Ġvul": 6786,
            "Ġtribe": 6787,
            "-known": 6788,
            "Ġlor": 6789,
            "ett": 6790,
            "Ġknees": 6791,
            "Ġliberal": 6792,
            "Ġpersons": 6793,
            "Ġinner": 6794,
            "aska": 6795,
            "Ġboom": 6796,
            "Ġphotos": 6797,
            "Ġsevent": 6798,
            "iable": 6799,
            "Ã¢": 6800,
            "ouri": 6801,
            "-cent": 6802,
            "zech": 6803,
            "Ġhitler": 6804,
            "Ġappointment": 6805,
            "enn": 6806,
            "Ġstudying": 6807,
            "Ġelections": 6808,
            "Ġincreasing": 6809,
            "Ġstated": 6810,
            "Ġohio": 6811,
            "Ġfi": 6812,
            "Ġpages": 6813,
            "Ġwhit": 6814,
            "ggy": 6815,
            "Ġideal": 6816,
            "-ch": 6817,
            "Ġja": 6818,
            "Ġtwin": 6819,
            "Ġparaly": 6820,
            "Ġpicking": 6821,
            "Ġtests": 6822,
            "Ġthirteen": 6823,
            "Ġexplanation": 6824,
            "Ġmoscow": 6825,
            "Ġbeating": 6826,
            "Ġcrimes": 6827,
            "Ġstanley": 6828,
            "Ġker": 6829,
            "Ġsorts": 6830,
            "Ġpatrick": 6831,
            "vant": 6832,
            "Ġdonald": 6833,
            "Ġcovers": 6834,
            "Ġrepresentative": 6835,
            "Ġbowl": 6836,
            "Ġplastic": 6837,
            "Ġjoan": 6838,
            "mal": 6839,
            "Ġcritics": 6840,
            "Ġthorough": 6841,
            "mic": 6842,
            "Ġruth": 6843,
            "Ġfrances": 6844,
            "Ġchin": 6845,
            "-com": 6846,
            "Ġclassic": 6847,
            "Ġsolar": 6848,
            "Ġgraph": 6849,
            "Ġcliff": 6850,
            "othy": 6851,
            "ints": 6852,
            "Ġpossibility": 6853,
            "Ġstops": 6854,
            "Ġcomputers": 6855,
            "cript": 6856,
            "Ġbrook": 6857,
            "Ġstephen": 6858,
            "cill": 6859,
            "iques": 6860,
            "Ġleo": 6861,
            "Ġcreation": 6862,
            "Ġviolent": 6863,
            "enna": 6864,
            "Ġspy": 6865,
            "Ġindividuals": 6866,
            "Ġdivorced": 6867,
            "Ġconvinced": 6868,
            "leton": 6869,
            "Ġvast": 6870,
            "Ġtries": 6871,
            "Ġprofit": 6872,
            "Ġmachines": 6873,
            "Ġwag": 6874,
            "Ġshield": 6875,
            "ether": 6876,
            "Ġacted": 6877,
            "Ġhousing": 6878,
            "Ġlinda": 6879,
            "Ġthief": 6880,
            "Ġarrive": 6881,
            "Ġdomestic": 6882,
            "Ġprecise": 6883,
            "Ġmister": 6884,
            "Ġdecisions": 6885,
            "Ġdynasty": 6886,
            "Ġmetropolitan": 6887,
            "uma": 6888,
            "Ġtender": 6889,
            "iko": 6890,
            "Ġpulling": 6891,
            "Ġoliver": 6892,
            "Ġstranger": 6893,
            "Ġcharged": 6894,
            "Ġvisited": 6895,
            "Ġboring": 6896,
            "Ġworship": 6897,
            "Ġresistance": 6898,
            "Ġfans": 6899,
            "Ġcomposer": 6900,
            "iser": 6901,
            "Ġgoddess": 6902,
            "Ġstroke": 6903,
            "Ġsmoking": 6904,
            "Ġdread": 6905,
            "Ġruin": 6906,
            "Ġsweetie": 6907,
            ".i": 6908,
            "Ġprincipal": 6909,
            "Ġsoup": 6910,
            "ivered": 6911,
            "Ġbride": 6912,
            "Ġdifficulty": 6913,
            "anes": 6914,
            "eness": 6915,
            "Ġbucks": 6916,
            "Ġtum": 6917,
            "Ġlyn": 6918,
            "Ġoverall": 6919,
            "Ġinvent": 6920,
            "Ã£": 6921,
            "hey": 6922,
            "Ġitems": 6923,
            "Ġdong": 6924,
            "Ġhelen": 6925,
            "Ġenjoyed": 6926,
            "Ġreply": 6927,
            "Ġconstit": 6928,
            "from": 6929,
            "lement": 6930,
            "Ġsolo": 6931,
            "hh": 6932,
            "Ġcats": 6933,
            "Ġfold": 6934,
            "Ġgrandpa": 6935,
            "-man": 6936,
            "Ġcore": 6937,
            "Ġthunder": 6938,
            "Ġassociated": 6939,
            "Ġmit": 6940,
            "Ġintended": 6941,
            "Ġseparated": 6942,
            "Ġcustomers": 6943,
            "rim": 6944,
            "Ġczech": 6945,
            "Ġholl": 6946,
            "Ġdepression": 6947,
            "Ġknocked": 6948,
            "gun": 6949,
            "mod": 6950,
            "eaking": 6951,
            "Ġdiagn": 6952,
            "Ġowners": 6953,
            "Ġinches": 6954,
            "Ġwishes": 6955,
            "remony": 6956,
            "tt": 6957,
            "Ġgained": 6958,
            "clusion": 6959,
            "Ġwarn": 6960,
            "ilton": 6961,
            "Ġpron": 6962,
            "Ġprotected": 6963,
            "Ġdecent": 6964,
            "Ġbarely": 6965,
            "Ġmall": 6966,
            "Ġliz": 6967,
            "elle": 6968,
            "Ġsally": 6969,
            "ington": 6970,
            "agne": 6971,
            "agger": 6972,
            "Ġenorm": 6973,
            "Ġannual": 6974,
            "Ġreplace": 6975,
            "Ġeter": 6976,
            "umber": 6977,
            "Ġapprox": 6978,
            ".e": 6979,
            "bow": 6980,
            "ingly": 6981,
            "reek": 6982,
            "Ġphysics": 6983,
            "Ġeager": 6984,
            "Ġouter": 6985,
            "onne": 6986,
            "Ġawake": 6987,
            "Ġvirus": 6988,
            "Ġsoutheast": 6989,
            "Ġcolumbia": 6990,
            "Ġyards": 6991,
            "Ġdia": 6992,
            "Ġashamed": 6993,
            "Ġwidely": 6994,
            "ĠÂ£": 6995,
            "Ġcritical": 6996,
            "Ġsacrifice": 6997,
            "Ġmoments": 6998,
            "Ġdistingu": 6999,
            "Ġcorps": 7000,
            "Ġtheater": 7001,
            "Ġcot": 7002,
            "Ġdiscussion": 7003,
            "fish": 7004,
            "Ġexped": 7005,
            "Ġgarage": 7006,
            "cons": 7007,
            "Ġpays": 7008,
            "Ġlaunched": 7009,
            "Ġian": 7010,
            "Ġending": 7011,
            "Ġconsid": 7012,
            "Ġceremony": 7013,
            "Ġdownstairs": 7014,
            "Ġeffective": 7015,
            "Ġhollywood": 7016,
            "Ġkhan": 7017,
            "Ġvaluable": 7018,
            "gro": 7019,
            "Ġlap": 7020,
            "Ġluke": 7021,
            "Ġliquid": 7022,
            "Ġdirt": 7023,
            "Ġpitch": 7024,
            "eder": 7025,
            "Ġreign": 7026,
            "Ġloan": 7027,
            "Ġpear": 7028,
            "Ġrear": 7029,
            "Ġugh": 7030,
            "Ġframe": 7031,
            "Ġalternative": 7032,
            "bro": 7033,
            "Ġitem": 7034,
            "Ġsyl": 7035,
            "pers": 7036,
            "Â°": 7037,
            "Ġcares": 7038,
            "Ġsweat": 7039,
            "hs": 7040,
            "Ġviews": 7041,
            "Ġdisaster": 7042,
            "Ġfoc": 7043,
            "ipper": 7044,
            "Ġoblig": 7045,
            "Ġanalysis": 7046,
            "Ġfc": 7047,
            "Ġmobile": 7048,
            "chuckles": 7049,
            "bill": 7050,
            "Ġstrict": 7051,
            "Ġtrap": 7052,
            "Ġcouncill": 7053,
            "Ġrobber": 7054,
            "Ġrailroad": 7055,
            "Ġvietnam": 7056,
            "Ġshift": 7057,
            "Ġintegr": 7058,
            "Ġtin": 7059,
            "Ġrefe": 7060,
            "Ġpersu": 7061,
            "Ġaccused": 7062,
            "Ġdates": 7063,
            "Ġmissouri": 7064,
            "Ġfare": 7065,
            "Ġjur": 7066,
            "Ġhoward": 7067,
            "iley": 7068,
            "Ġsla": 7069,
            "Ġengage": 7070,
            "Ġmighty": 7071,
            "Ġjudgment": 7072,
            "atell": 7073,
            "Ġcathed": 7074,
            "itors": 7075,
            "Ġrobin": 7076,
            "Ġtechnical": 7077,
            "Ġkentucky": 7078,
            "anches": 7079,
            "Ġcommunist": 7080,
            "Ġpup": 7081,
            "Ġdesperate": 7082,
            "lord": 7083,
            "Ġcave": 7084,
            "Ġcomic": 7085,
            "Ġshakes": 7086,
            "Ġslaves": 7087,
            "Ġservant": 7088,
            "Ġoperating": 7089,
            "Ġthrowing": 7090,
            "Ġscreaming": 7091,
            "olf": 7092,
            "Ġcontrolled": 7093,
            "Ġbags": 7094,
            "Ġlatest": 7095,
            "Ġinjury": 7096,
            "orpor": 7097,
            "Ġsmiled": 7098,
            "Ġhank": 7099,
            "happy": 7100,
            "Ġsmiling": 7101,
            "Ġassass": 7102,
            "-o": 7103,
            "Ġattended": 7104,
            "Ġmidnight": 7105,
            "Ġvolume": 7106,
            "Ġcompar": 7107,
            "Ġfairy": 7108,
            "Ġthreatened": 7109,
            "Ġsacred": 7110,
            "Ġfrightened": 7111,
            "Ġske": 7112,
            "Ġhamp": 7113,
            "Ġseal": 7114,
            "Ġsheet": 7115,
            "ifer": 7116,
            "Ġclubs": 7117,
            "Ġdennis": 7118,
            "Ġhunter": 7119,
            "Ġcalendar": 7120,
            "Ġefforts": 7121,
            "berry": 7122,
            "Ġski": 7123,
            "Ġmales": 7124,
            "Ġclaims": 7125,
            "Ġevident": 7126,
            "Ġamendment": 7127,
            "Ġpermanent": 7128,
            "ulpt": 7129,
            "Ġblast": 7130,
            "Ġhighness": 7131,
            "Ġfiles": 7132,
            "Ġcommunication": 7133,
            "Ġhem": 7134,
            "Ġneut": 7135,
            "Ġexclaimed": 7136,
            "Ġswall": 7137,
            "Ġpunishment": 7138,
            "Ġhm": 7139,
            "Ġtear": 7140,
            "Ġringing": 7141,
            "Ġsurvived": 7142,
            "-night": 7143,
            "Ġmemorial": 7144,
            "Ġoutta": 7145,
            "Ġcovid": 7146,
            "Ġintellect": 7147,
            "nold": 7148,
            "Ġpole": 7149,
            "ensity": 7150,
            "Ġoccas": 7151,
            "Ġclaire": 7152,
            "Ġbureau": 7153,
            "Ġosc": 7154,
            "illing": 7155,
            "Ġcomr": 7156,
            "Ġlasted": 7157,
            "Ġpenal": 7158,
            "viour": 7159,
            "Ġvotes": 7160,
            "greg": 7161,
            "alo": 7162,
            "Ġintention": 7163,
            "Ġformal": 7164,
            "Ġedition": 7165,
            "Ġagents": 7166,
            "hum": 7167,
            "ogue": 7168,
            "Ġassault": 7169,
            "Ġepisodes": 7170,
            "istered": 7171,
            "Ġthrone": 7172,
            "Ġchances": 7173,
            "Ġraw": 7174,
            "Ġmichigan": 7175,
            "Ġgear": 7176,
            "Ġnoted": 7177,
            "Ġflows": 7178,
            "Ġworldwide": 7179,
            "Ġglory": 7180,
            "Ġtalent": 7181,
            "Ġwondered": 7182,
            "Ġphilip": 7183,
            "Ġfeather": 7184,
            "Ġinfant": 7185,
            "Ġmerged": 7186,
            "sk": 7187,
            "uge": 7188,
            "Ġkam": 7189,
            "Ġslip": 7190,
            "Ġinternal": 7191,
            "Ġbarn": 7192,
            "Ġlaught": 7193,
            "Ġgraduated": 7194,
            "Ġcrisis": 7195,
            "iped": 7196,
            "zer": 7197,
            "Ġhits": 7198,
            "Ġkang": 7199,
            "Ġabb": 7200,
            "Ġbund": 7201,
[...]
